FF03
01B8
FF9F
FEBA
FE7E
FFCA
004D
FF97
0083
FE2E
00D0
011D
0040
FF31
FEBE
FF23
FE45
017B
0198
01D7
00D2
00C8
FF7E
0169
FF7E
01DC
0178
005C
0015
0105
006D
FEB1
0036
FF98
FF68
FE8A
FE64
FFE3
FF1C
FF44
011C
FFD6
00D9
00EB
FEB8
01BD
01CA
FE9D
0003
0157
00AB
006F
014F
FE9B
020B
FF65
FE77
0038
00D7
003D
0007
0218
0002
01EF
005D
FFF1
002B
FF8E
FF8B
FF71
0084
FEDA
FF4D
00FA
009F
007C
FF49
010D
FFAC
FFFA
0011
0003
0082
002A
FF2E
FF73
FF8E
0095
FF8C
FF77
0074
0075
0011
001A
0110
FF73
FFB3
00C4
FF4B
FF5A
0063
0080
FFBD
0061
0040
00C3
FEE7
0009
FEDB
0096
0035
FFC4
FED4
0017
0011
FF7D
0099
FF39
FF0F
0061
FFFE
0160
00BE
FFA1
FFD3
FFD8
008E
009B
FF45
FF68
0013
00BF
00BB
FFBD
FFF0
0087
0115
FFC4
0109
FFB3
FE71
008E
005C
0141
FFC9
FF05
FFD5
FFA3
FFFE
0161
FED1
FF1C
FE74
0043
003C
0134
00EB
0118
0080
002E
005D
006D
FF66
FFAF
0100
FF70
0104
FEF1
0102
00CF
FEBB
009F
005C
0084
0024
FF98
005C
FE9F
0129
0191
FEC7
006A
FFB9
FFD7
FF7B
FFBE
FF0E
0150
007F
FF61
0124
FFD9
FF8D
FFC6
0055
006E
FFBD
FF73
002F
FF90
FFC9
0070
FFD7
FF7A
010D
011F
FEEC
00E6
006B
FF9C
0023
FF61
FEDB
FFD6
FF74
FF35
FFCF
FFE2
FF2E
0087
FF9D
0021
FFB6
FF5C
0003
0067
FF26
004F
0092
006A
006D
FF76
0007
00C7
FFA2
0164
FFA1
001F
0005
FFAF
FFE7
0005
FF8E
FF03
007F
FFDE
FF97
FF94
00E7
00E0
FF41
010C
FF15
007D
00BF
FFFB
FF7E
FFDE
01B1
FF71
FFA3
FE9B
01B4
FEE6
FEC7
0032
FF7A
FEC1
002D
FF57
0007
0064
FFD3
0043
00BE
0045
FFA5
FEF8
FEED
FFE0
FFFB
000C
0049
007A
FE2A
013C
0151
0076
FE2D
00D6
FF72
FFFF
002B
015D
FEFA
0083
FEF7
00D6
001C
002A
FFAC
009F
0119
FF27
FF72
0033
FEA3
FFD9
004E
FF53
FFF2
0173
015F
010C
0177
FF2C
FE75
000C
00FB
0043
