0006
0000
FFF5
FFFE
0019
FFF2
0005
FFFE
FFFF
FFEF
0001
000A
000B
0009
0001
FFFB
FFFC
000A
0008
0004
0017
0007
0004
FFFF
0002
001A
FFF7
0012
FFF9
0003
0000
FFE7
FFF2
0004
0013
0007
FFEF
0011
FFFC
000F
FFFB
0003
FFF0
FFFF
FFF9
FFFD
0015
FFFA
FFFB
000B
0003
FFFC
FFFE
FFF5
FFF0
0003
0008
FFF5
FFFB
0001
0001
FFF8
FFF2
0003
0003
FFF9
FFF3
0005
FFFE
0007
000A
FFFC
0006
0005
0014
0001
0001
0009
0001
000E
0009
001A
FFF6
0001
0007
0008
000F
000F
0008
000A
0003
FFFF
0005
0003
000D
0009
FFEF
FFF7
FFFD
FFF6
FFFC
0000
FFF0
000D
FFFB
FFFC
FFEA
FFF9
0002
0007
FFF9
FFF3
0008
FFF2
0015
0006
FFFB
0002
0004
0001
0004
FFFE
0004
0008
FFF1
FFFC
FFF4
000F
0003
0006
000D
FFFA
FFFD
FFFA
000A
000C
0003
FFF8
000E
000A
FFEE
FFF3
0012
0003
FFF7
000A
FFED
FFF3
FFF9
FFEB
FFFE
FFFB
0008
000D
0005
FFF1
0016
FFF1
0002
0003
0008
000A
FFF8
0001
FFF6
FFF4
0009
000C
000A
0005
0006
FFFD
FFEB
FFF8
0002
FFFD
0005
0007
FFF5
FFFE
FFFC
FFF2
0004
FFFA
0007
0000
000B
FFFC
0007
FFEE
0002
0003
FFF9
FFF7
FFF7
000B
0008
0006
FFF8
FFF6
FFFE
FFF5
FFF3
FFFC
0006
0006
FFF8
0000
0002
0008
0007
FFFB
FFFD
0018
FFF7
0000
FFF8
000B
FFF6
0005
0000
000B
FFFA
FFF9
0004
FFFA
0007
0006
FFF7
0007
000D
0004
FFFA
FFFF
000A
0008
0003
0003
000D
0008
FFFD
FFF8
0007
FFF5
FFF0
FFFA
0000
FFFC
0002
0004
0000
FFF8
0002
0002
FFF4
0004
FFEE
000C
0008
FFFB
FFF4
0011
FFF6
000D
FFF4
000B
FFF2
0000
FFF4
0002
000C
FFFA
FFFB
0009
0000
FFF9
FFFE
FFF9
FFF5
FFFF
000A
FFF5
FFF8
FFFE
FFFB
FFFE
0002
FFFD
FFFF
FFFF
FFFC
FFFA
0002
FFF8
0009
0004
000D
FFF6
0005
FFF7
FFF3
FFE9
000C
0003
FFF5
0002
FFF4
0000
FFF5
FFF7
FFF7
FFF5
000F
0003
0000
FFF3
0006
0002
0000
FFFE
0003
FFFF
FFFC
FFFC
FFFD
FFFA
0001
FFFC
FFFB
000B
FFFE
0000
FFF8
0002
0005
FFFF
0006
FFF2
0007
FFFB
FFEA
FFF5
0004
000D
FFFD
0004
0009
FFF2
0003
0008
FFFF
000D
FFF4
FFFB
0009
0004
FFFE
0008
FFF5
0000
FFEE
FFFC
FFDC
0002
0007
000C
FFFD
FFF1
FFFD
0009
0006
0002
FFFE
000D
FFFE
0000
FFFD
000E
FFF8
0008
FFFE
0003
FFF2
FFEB
FFF9
FFFA
0004
0007
0005
0007
FFFA
FFF6
FFFD
FFFD
0008
FFFD
000B
000C
0001
0007
0002
000E
000E
000A
000D
0012
FFFE
FFF5
0008
0001
FFFE
000E
0004
0002
FFFC
FFF0
FFFD
0008
0001
FFFD
0000
FFFF
0003
0001
0006
FFFC
0005
0003
FFF7
000B
0002
FFFD
0002
FFFE
000A
FFF8
0002
000E
FFFB
FFF6
0000
0005
FFFC
0008
0003
0008
FFFC
FFF5
0007
FFFF
FFFB
0004
0001
0002
0007
0002
0000
FFFF
0002
FFFD
000B
0004
0004
FFFD
0005
FFF6
000D
0002
000B
0015
000D
0004
0003
FFFE
FFF5
0001
FFF3
FFFA
0005
FFF8
FFFB
FFFC
0005
FFF9
FFF9
0003
FFFD
FFFD
0005
FFFC
FFFD
FFF6
0005
000D
0005
0005
0004
0001
0001
000A
0001
FFF6
0003
000A
FFFF
FFFE
0005
0002
0007
FFFC
FFF9
0000
0002
0000
FFF8
FFFD
FFF0
FFFD
000D
FFFE
0007
FFF5
000E
FFFA
0005
FFFC
0005
FFFF
FFFB
0004
FFFA
FFFF
FFFA
000A
0001
FFFB
0007
001D
FFFE
FFFB
0011
FFF9
0002
FFFC
000C
0000
FFF4
FFFD
FFF0
FFEE
000A
0007
000E
FFFC
0013
0006
FFDF
FFE2
FFF9
000B
FFF8
0000
FFF0
FFE9
FFFE
FFE8
FFF0
FFFC
0006
0003
0001
FFF3
0016
FFF0
0006
FFFB
0003
FFF9
000B
0005
FFEC
0000
0003
FFFC
0003
0004
0000
FFF8
FFF5
0002
0007
0003
FFFE
FFFC
0003
FFF2
FFED
FFE7
FFFD
0000
FFF4
FFF2
0007
FFF7
0005
0007
0003
0007
FFFD
FFF8
0008
0002
FFEE
0006
FFFF
0001
0005
0003
0000
FFF7
FFF4
FFF4
000C
0002
0003
FFF9
0002
FFF9
FFEF
FFFD
FFF8
0001
FFFB
FFED
0003
FFED
0003
0005
FFFB
0006
0001
FFF1
FFFB
FFFC
000E
0003
FFF4
FFFC
FFFB
FFF8
FFF5
000B
001D
0008
FFFB
FFFD
FFFF
FFF7
000B
0005
FFFA
0018
0003
FFFF
FFF4
FFFD
FFF3
0011
FFEC
0012
FFF3
FFF8
0002
0001
FFFD
0001
FFF1
FFF5
000F
000C
0002
0004
0006
FFFD
FFF3
FFFE
000A
0001
FFFA
0000
FFFA
FFF6
FFF6
FFF5
FFFF
FFFF
0006
000B
0002
FFF3
0004
FFF0
FFFB
FFFE
FFFE
0008
FFFC
FFFD
0016
FFFD
0005
FFF0
000E
0008
FFFC
000E
000C
0006
FFF9
FFFF
0003
0007
FFFE
000A
000C
000D
0006
0003
FFF3
FFFE
FFF0
000F
0000
0009
0001
0002
FFFD
FFFF
0005
FFFE
FFFF
FFF6
000E
0002
0005
000B
FFFA
0001
FFFA
0001
0001
0008
FFF9
0001
FFFB
FFFB
FFFB
FFF7
FFF5
0006
0000
0008
0007
0003
FFFE
0008
FFFD
000A
FFF4
0007
0011
0002
0001
FFFD
0002
0015
FFFE
FFFD
FFEF
0005
FFF9
FFFE
000F
FFEE
FFF5
000F
FFFD
FFF7
FFF3
0000
FFF6
FFFD
000C
000F
FFFE
FFFA
FFFF
FFF2
FFFD
FFF8
FFF7
000E
FFFE
000E
FFF6
000A
FFFF
0008
FFFC
FFF8
FFF6
0008
FFF7
FFF9
000D
FFFC
0000
FFFE
0008
FFFF
FFF5
FFF3
FFEB
FFF9
0005
0003
FFFD
0000
FFFE
0006
FFFB
FFFA
0001
FFFC
000A
0000
FFFF
FFF6
FFF0
0003
0003
FFFA
FFF9
000D
0002
FFF3
0007
0004
FFFB
0007
FFFB
0004
FFF7
FFEE
FFFC
0005
FFFF
0006
0006
FFF8
0006
FFFD
0000
0001
0009
0001
0009
0003
FFF8
FFFC
0009
0008
0000
0002
0007
0008
FFF8
0003
0001
000A
0005
000E
000D
FFFD
FFFA
0000
0007
FFFF
0005
0004
000A
000B
0006
FFFE
000E
0005
0008
FFFD
FFFE
0008
0006
0005
000B
0005
0002
FFFD
0009
FFF5
FFFD
FFFF
FFFA
0003
FFFF
FFEF
FFEE
FFF9
FFFD
FFFC
0001
0001
FFFF
FFF8
FFFF
FFF8
0009
0007
FFFD
FFFF
0002
0006
0001
0008
0000
0000
0000
FFF9
FFFD
FFFA
FFFB
0006
FFFE
0003
FFF7
0005
0004
FFEE
0000
FFFD
FFF9
0008
FFFF
0000
0007
FFFC
FFFE
0001
FFFC
FFF6
FFFE
FFFF
0003
0008
000B
0006
FFF1
0005
FFFE
FFFF
0007
000C
FFFA
0004
0003
0005
FFFF
0007
0000
FFF2
0000
FFFA
FFE8
FFF5
000C
0000
FFF7
0009
FFFE
FFF0
0001
FFFF
FFFE
000B
FFF8
FFF7
000A
0005
FFFB
0008
FFFF
0000
FFF6
FFF0
0011
000A
FFFD
0009
0009
0003
0000
0007
FFFB
FFFF
FFF9
0003
FFFB
0000
000B
000A
0007
FFFE
000F
FFF9
0001
FFFD
FFFB
0008
FFFC
0003
0006
FFF5
0007
FFFD
FFF1
FFF4
0004
0007
0001
FFFF
0007
FFF5
FFF9
FFFC
0004
0002
000C
FFF6
0006
0005
0001
000D
FFF6
FFFC
FFF7
0007
FFFA
0004
FFFE
FFFD
0003
000E
FFE7
000F
0003
0008
0004
FFFB
000B
000A
FFF5
FFFC
000B
0000
FFF4
0009
FFF5
FFF7
FFEF
FFF7
FFEB
FFFB
0008
FFF9
0005
FFFE
0005
FFFC
0000
FFFA
0004
FFF3
FFF8
FFFB
FFF4
0002
FFFC
0002
FFFD
FFFB
000E
0003
FFEE
0006
FFFF
0001
0000
0009
0014
0001
FFF6
0003
0013
0006
0009
000C
0008
0009
0008
FFFE
000F
000A
FFFA
0001
0001
0001
FFFA
000D
FFF6
FFFA
FFF6
000B
FFF4
0001
0010
0003
FFFB
FFF8
0002
FFFE
FFF6
0004
FFFC
0001
0000
000A
FFF5
0002
FFF6
0001
FFF4
0008
FFF6
0001
0008
000C
0003
0010
FFF2
0001
0009
0006
FFFA
0000
0013
FFFB
FFF4
FFF3
0000
0005
FFFB
FFF8
FFEA
FFEA
FFEE
FFEF
FFF6
FFFA
0006
0003
FFFA
FFEE
000E
0000
FFF7
0007
0007
0007
FFFE
0006
FFF7
0000
0010
0008
0002
0006
0007
0005
FFFE
FFF6
0007
FFF6
0004
FFFE
FFF7
FFED
FFFB
0004
FFFE
FFFD
0001
0007
0001
FFF6
0002
FFF9
0001
0009
FFF8
FFF7
0007
0004
0003
0006
FFFE
FFFF
FFFA
FFF8
FFED
FFFE
FFFD
0006
0008
0005
0004
0003
0007
FFFF
FFFC
0009
FFF6
FFFE
0002
0009
FFFF
0004
0000
0001
0000
FFED
FFF9
FFFA
0006
0002
FFFB
000A
0001
FFFD
FFF5
FFFC
0008
000F
FFFE
0002
FFFC
000B
FFFA
FFFD
0008
000B
FFF6
FFFA
FFF8
0002
FFFC
FFFC
0006
FFFC
FFFF
0002
FFFA
FFF8
0005
0009
FFFA
0008
FFF9
FFF3
000A
0008
FFF6
0006
0009
0006
FFEC
FFFA
000C
0004
FFFD
0009
FFF3
FFF7
FFF6
FFF2
FFFA
FFF6
0011
000F
FFFF
FFF9
000C
0006
0006
0001
FFE4
FFFD
001B
FFF3
0009
000C
FFE0
FFF7
FFF3
FFFD
FFE8
FFFC
0010
001C
FFFB
FFF9
0002
FFF1
0018
000E
0010
0016
0008
0010
FFF0
FFE7
FFEE
0011
FFEF
0017
FFF0
FFF0
0007
FFF6
0009
FFF9
FFFB
FFFE
FFFF
FFF8
FFFD
0000
0005
0003
000C
0003
FFF5
FFF9
0002
FFFB
0005
FFFB
FFF9
000A
0002
FFFD
FFFE
FFFB
FFFF
0000
0001
0009
0003
0006
FFF5
000F
0016
000B
0002
0009
FFFE
0005
FFE7
0002
FFE8
FFFA
0002
0010
0012
FFF2
FFFC
0005
0000
0003
FFFF
0003
FFF4
FFFC
FFFB
0003
FFF7
0000
FFFA
0014
FFF6
FFF0
0000
FFFF
FFF9
FFFE
0005
0008
FFFD
0007
0000
0004
0003
000A
0000
FFFC
000D
000E
0001
FFF9
FFFA
FFFE
0005
FFFC
FFF5
FFF7
000E
0000
0003
0002
0011
FFF7
0003
FFF7
FFFD
0003
FFFF
0008
FFF9
FFFE
000B
FFFF
0001
FFF6
000B
0003
0002
FFFC
FFFB
0000
FFFF
0000
FFF9
FFFA
0001
000B
FFF2
FFF3
FFFE
000A
0002
FFFB
0006
0001
0001
FFFB
0005
FFFB
0001
FFFC
0009
0003
FFFB
0000
0003
FFF7
0002
0009
FFFF
FFF9
FFF9
FFFA
000B
0001
FFFC
000A
000A
0004
FFF8
0007
0008
0007
FFFA
000A
FFFA
FFFE
0001
0002
0000
0002
0003
0004
FFF9
FFFE
0003
0001
FFFA
FFFE
0000
FFF6
000A
FFFF
FFFD
FFFF
FFF6
FFFA
0005
FFFF
FFFA
FFF7
FFFF
000A
FFF9
FFF4
FFF9
FFF7
FFF6
FFFC
FFF8
FFFB
FFEF
0002
FFFF
0002
0000
000B
FFFA
FFF8
FFED
0002
FFE4
0001
0006
000A
FFF1
FFFD
FFFD
0000
0005
FFF9
FFF8
0017
FFF8
FFF3
0002
FFF7
FFF1
000B
FFFE
0006
FFF0
FFE4
FFFA
0004
000A
FFFC
FFF9
000C
FFFC
FFF5
0002
FFF9
FFF4
FFFE
0000
FFFE
FFF1
0000
FFF8
0000
0014
FFFA
0008
0002
FFF8
FFFE
FFF7
FFF9
FFFA
0005
FFFA
0008
FFF3
FFEE
0003
FFF5
0006
FFF5
FFF4
FFFE
0004
FFF9
0008
0004
0001
FFF3
FFF5
FFFE
FFFE
000A
0009
0005
FFFC
FFFB
FFFA
FFFD
0001
0009
FFFA
FFF4
000D
0000
000A
FFFB
000C
FFFF
0008
FFFE
FFF6
FFFB
FFFD
FFFE
0005
FFFA
000D
0000
0005
0005
FFF9
FFF6
0007
0008
000A
FFF5
FFF9
0005
FFF0
FFF9
0004
0001
FFFF
FFFC
000B
FFF6
0005
FFF5
000E
0001
FFF1
0002
FFFD
0000
0005
000C
FFF3
FFFF
FFF5
0004
FFF6
000F
000D
0011
FFFD
FFF5
FFFF
0002
0017
FFFE
0007
0007
FFFA
FFFA
FFF8
FFF6
FFE8
000A
FFF4
000A
FFFB
0006
0000
0004
0002
FFF7
FFFE
0007
000D
0003
0007
0003
FFFC
0005
000B
FFFF
0009
0002
0009
0009
0008
000C
FFFE
FFFA
000B
000F
FFFD
0001
0008
FFFB
0007
0001
FFFD
0003
0008
000C
FFF3
000D
000F
FFF4
0008
0003
0008
0004
0007
000D
FFF6
0007
FFF6
0005
0002
FFF6
0000
0002
000E
0008
0000
0004
FFFF
FFF8
0002
0005
0006
0012
FFFC
0001
0009
0001
FFFF
0004
000C
FFFB
0009
FFFB
0002
0006
0004
FFFC
0008
0002
FFFB
0005
0007
FFFE
FFF3
0008
0001
000C
0007
0000
FFFF
FFFE
0000
0000
FFFA
FFFC
0000
0005
FFFF
FFFB
0009
000D
0004
FFFE
FFF9
0003
0000
FFFD
FFFC
FFFD
0002
FFFA
0008
FFF0
FFF9
000F
0004
FFFB
FFFB
FFFF
FFF8
FFFD
000B
000A
FFF2
FFFF
FFFA
FFF4
FFFE
FFED
FFEF
000B
0005
0009
FFF5
0007
FFF4
000B
0002
FFF9
FFFE
FFFA
FFF2
FFFB
FFFD
0001
FFF9
0001
0004
FFF9
FFFC
FFF3
FFF4
FFFB
0009
FFFE
FFF5
FFFC
FFFA
0008
FFF7
FFF0
0006
0004
000C
0005
FFF3
0002
FFF8
FFFA
0000
0007
FFFF
0000
FFF9
FFF4
FFFF
0010
0000
FFF9
FFF9
0006
FFFE
FFF5
FFF8
0006
FFF9
FFF4
0009
FFF4
0002
0008
0003
FFFC
0005
0004
FFED
000A
FFF7
FFF5
0005
FFFE
000E
0007
0015
FFFD
FFF6
FFF3
0002
0003
0003
0002
0001
FFF8
FFF4
FFFA
FFFF
FFF8
0006
000C
0008
FFF7
000B
FFF8
000B
0011
FFFA
0002
0004
FFFD
0004
FFFE
FFFE
0001
0007
0007
FFFF
FFFD
FFFE
FFFB
0001
FFF8
FFFD
0006
FFF5
FFFC
FFFF
0001
0003
0005
000F
000A
0002
0001
0009
0001
0003
FFF8
FFFB
0002
FFFE
FFFE
0005
FFF3
0002
0002
FFFE
FFF7
FFFF
FFFD
0000
FFF7
0004
FFFB
0007
FFF7
FFFE
0004
0006
FFFB
FFF9
0002
000C
0007
0002
FFFF
FFFA
FFF7
0001
0009
000C
FFFD
FFFE
FFFC
0001
000A
FFFE
FFFD
000A
0006
FFFE
0002
FFFF
FFFB
FFFC
0001
0008
0008
0002
FFFC
FFF2
FFFD
0009
0001
FFF7
FFFB
FFFB
FFFB
FFF4
0004
FFFC
0004
FFFF
FFF9
0005
0010
0004
0002
0006
0005
FFFF
FFF8
000B
000B
FFF7
0000
FFFC
0004
0003
0005
000B
0003
0006
0005
FFF4
0001
0003
FFF5
0007
FFF9
0000
FFFA
FFFE
FFF6
0000
0006
FFF4
0003
0003
FFF8
0003
FFFE
FFF3
0001
0001
0000
FFF5
FFF2
0009
FFF5
FFF8
0007
FFFD
FFFA
0007
0000
0000
FFFB
0000
000F
FFFC
FFFD
FFFC
0009
FFF0
FFFB
FFFB
FFFA
0009
FFFE
FFFE
0001
FFFF
0010
0006
FFF5
FFFE
000A
FFFF
0008
FFFE
FFFD
FFF8
000A
FFF9
FFFF
FFFD
FFF6
FFF6
0002
0007
FFFB
FFFC
FFFD
0001
FFFB
0003
FFF6
FFF4
000B
0004
0016
FFEC
0014
FFFD
000F
FFFC
0014
FFF0
000B
0005
000A
0005
FFF9
0000
FFFD
FFF3
FFF1
FFF6
0012
FFF6
FFFE
FFFA
FFFC
FFF6
FFF9
FFF7
0010
0000
FFFF
0008
FFEE
FFF3
FFE3
0004
FFF3
FFEF
FFF5
0004
0002
000C
FFF8
FFFE
FFF5
FFF1
0009
0001
0008
000C
0007
0005
FFFC
000B
000F
0000
0005
000C
FFFC
0005
FFE8
000A
0010
0008
FFFF
000D
0004
0003
0002
0004
0005
FFFD
FFF9
FFFF
0007
0002
0006
FFF9
0007
FFFD
FFFA
0003
FFF7
FFFA
FFFF
0002
FFFC
0004
FFF6
FFF7
0004
0007
0009
FFF8
FFF7
FFFC
0005
0008
FFFF
FFFD
0006
FFF9
FFF9
FFFC
0001
FFF9
0002
0009
0006
0007
FFFE
FFF9
0001
FFF8
FFF4
FFF8
0013
000A
FFFC
FFFB
FFFE
0004
0002
FFFC
0000
0001
FFFD
FFF7
FFF9
0000
0004
0006
0002
0001
0000
FFF9
FFFB
FFFC
0008
FFFA
FFFC
0001
0005
0000
000A
0007
0006
FFFB
FFFE
FFF6
0005
0008
0001
0002
0001
FFFF
FFFD
0004
FFF9
FFF8
0009
FFFF
0003
FFFA
0001
0003
FFFF
FFFB
FFF9
FFFE
FFFD
FFF7
0007
FFFB
0005
FFF8
FFF0
0006
0004
0002
FFFE
FFF5
FFFA
0001
0001
FFFD
FFF2
FFF6
FFFE
0000
0008
FFFA
FFFA
000C
FFFB
FFF6
FFFA
0001
0008
FFF7
0011
0006
FFFD
FFFC
FFF8
FFFB
0006
FFF9
0003
FFF7
FFF5
0001
FFEF
0001
FFFD
FFFF
FFF3
FFF7
FFFC
0005
FFFD
0000
0002
FFFB
FFFA
FFF6
FFF8
0006
0009
FFFD
0009
0005
FFFA
FFFF
FFF9
FFF5
0000
0009
0006
0003
FFFF
0007
0002
FFFD
FFF5
FFF8
0002
FFFD
0011
0005
FFF8
000C
0000
0003
FFFE
FFFC
FFF3
FFF9
FFFC
FFFC
FFFD
FFFB
FFF9
0005
0003
000B
0003
FFFB
FFFF
FFFF
FFF9
0000
0004
0008
FFFD
0002
0005
FFF8
FFF6
FFFA
FFF4
FFF9
FFFB
FFFD
0002
FFFB
0006
FFF9
0005
0016
0008
FFF5
0005
0002
0010
FFFC
0003
FFFE
0000
FFFF
FFFB
000C
FFFE
0001
000D
0007
FFF6
FFFA
0001
FFF4
FFFC
0001
000D
0003
0001
FFFF
0007
0006
FFFA
FFF2
FFF5
000A
FFFD
0002
FFFE
FFEE
FFF9
FFF2
FFFB
FFED
0004
0002
FFFC
FFFA
FFFE
0004
0002
0005
0003
0006
0003
FFFE
0006
000F
FFFE
FFF7
0009
FFFB
0002
FFF6
FFEA
FFF4
FFF3
FFFD
FFF7
FFFE
FFFC
FFFB
FFF4
FFF9
FFF8
FFEF
FFFC
0003
FFF9
FFFA
FFFB
000F
FFF8
000D
000A
FFFB
000C
0008
0002
0006
FFFD
0001
0004
FFFB
0005
FFFD
FFF1
FFFC
0007
0001
0006
FFFB
000B
000E
0005
0001
0004
FFFB
000D
FFFB
0005
0009
0003
0002
0005
0009
0006
0006
000C
000A
000A
FFFC
FFF7
FFFF
FFFD
FFF2
FFFE
0002
0002
0000
FFFB
FFFA
0003
0004
0002
FFFC
FFF5
0012
0003
000C
FFF4
FFFD
FFFF
FFFF
0005
0007
FFFB
FFFF
FFFB
0003
0001
FFFB
FFFA
FFFB
0008
FFFC
FFFE
0006
0003
0000
0002
0000
0005
0008
FFFC
0002
0000
FFEA
FFF8
FFFA
FFF5
FFF9
0003
000C
FFF0
FFFC
FFF4
FFFC
0006
0001
FFFF
0002
0005
FFF1
FFFD
0006
FFFB
FFFB
FFFA
0002
FFFA
0000
FFFE
0002
FFF2
FFF2
FFF0
FFF9
0012
FFF3
FFFB
0005
FFF5
FFFC
0000
0005
0002
FFF0
0008
0004
0006
000F
000C
000D
FFFD
0008
000A
FFEF
0008
0003
0013
0004
FFFE
FFFD
FFF9
0006
FFF4
FFF8
FFF2
000B
FFEF
FFFB
FFF1
0004
0002
000E
FFFC
0002
FFF9
FFF8
FFFB
000A
000C
0002
000F
0008
FFF8
0001
0003
FFF5
000D
000A
FFFF
000F
FFF5
0009
0005
0000
FFF7
FFF8
FFFB
0007
FFF7
0002
FFF7
0004
0001
0005
FFFE
0010
0007
FFEE
0003
0008
0001
FFFD
0010
0007
0008
FFFA
FFFA
0000
0006
0004
FFFE
FFF8
FFFC
0005
0005
FFFF
000D
0004
0008
0006
FFFF
FFFC
0007
0000
FFFD
FFFB
000D
FFFC
0008
FFFF
0002
FFFA
FFF4
FFFB
0007
FFFB
0004
FFF4
FFFA
0007
FFEE
FFF8
FFF9
FFF1
0012
FFF8
0003
0004
0005
0003
FFF3
FFF4
FFFF
0013
FFFD
FFF9
0006
0004
FFF7
FFFB
FFFF
FFF7
0002
0003
FFF9
0009
0006
0002
FFFF
0008
0005
FFFC
FFF6
0009
0009
0005
FFFB
0003
FFF5
000B
000D
FFF4
0011
000F
FFFA
000D
0001
0011
0004
0008
0004
0000
FFFB
0006
FFFB
FFFA
FFFE
FFF5
FFFE
0008
0005
FFFD
0004
FFF9
FFFC
FFF8
0005
FFFA
0008
FFF8
FFF4
0009
FFFD
0007
FFF9
0008
FFFF
0000
0001
0011
0000
0006
FFFB
FFFA
0007
FFEF
0005
000C
FFF8
0002
000A
0002
000A
000B
000D
FFFA
0002
0009
000C
FFFC
FFFA
0004
FFFE
FFFE
FFFB
0003
FFFC
0002
0009
FFFF
0001
0001
FFFD
FFFA
FFFF
FFF2
FFF4
FFFC
FFF9
FFF6
0004
0006
FFF3
FFFB
FFF1
FFFB
FFFF
FFFE
0001
FFFB
0005
FFFD
FFF7
FFFE
FFF8
0000
0004
0005
FFFB
0002
0002
0003
000A
FFFE
FFF5
FFFB
0002
FFF7
FFF3
0002
0005
FFFE
000C
0003
FFF8
FFF5
FFF0
FFFA
FFFF
0005
FFF4
FFFD
FFFF
0000
FFFC
0005
FFFE
0000
FFFE
FFF4
0003
FFFF
0001
000A
FFFC
FFFE
FFFE
0010
0006
FFFA
FFF8
FFF7
000C
FFFD
0001
FFFB
0003
0001
FFFF
FFF6
0003
FFFC
0006
FFF4
FFFB
FFFF
000A
0001
0008
FFFC
FFFD
FFF5
0007
000A
FFFD
FFF8
FFF9
FFFE
0005
FFF0
FFFC
0009
0000
FFF5
FFF8
FFF6
FFF3
0003
FFF7
0003
0014
FFFA
FFFC
FFF4
FFE8
FFFB
0009
FFFD
FFFF
FFFA
FFE7
FFF6
000E
0005
FFFB
FFFD
0001
0003
0006
0000
FFFD
FFFA
FFFC
0002
FFFE
0003
FFFE
0000
0003
FFFA
FFF9
FFFD
FFF3
0000
0004
000A
0001
FFFB
0004
0003
0009
FFFD
0002
FFFF
0005
FFFE
000E
FFF9
FFFC
0000
FFFB
FFFB
0006
FFEE
FFF8
FFFF
0006
000F
FFFD
FFF5
FFFB
FFF7
FFF9
FFFA
000A
FFFC
FFF4
0003
FFFA
FFF0
FFF6
FFEA
0005
FFFD
0008
000B
FFFC
FFFB
FFFC
FFFA
FFFB
FFFD
FFF8
FFFE
0000
FFFD
0008
FFFD
0001
FFF8
FFF2
FFFF
FFFE
FFF8
0002
0002
FFFA
FFFD
FFFB
FFFC
0008
FFF6
0006
FFFC
0002
FFFE
0002
FFFC
0001
0004
000C
FFF9
0007
0005
0000
FFF7
FFFF
0005
FFFE
FFF7
FFFE
FFFA
FFF9
FFFB
0003
0002
FFFD
0005
FFFF
FFF7
0004
0009
0001
FFFC
0001
FFFF
FFFC
FFF9
FFF8
FFFC
FFF4
000B
FFFE
FFFF
FFF9
0005
0005
0004
FFF8
0007
0007
FFFD
FFFC
000D
0007
0009
000D
FFFD
0005
FFF6
0004
0003
0004
000D
0010
000F
FFFD
000C
0002
0007
FFFD
FFF9
FFF4
000B
FFFD
FFFE
FFF6
0007
0002
0001
FFF5
FFF6
0004
0008
FFF7
FFFB
FFFE
FFF7
0002
0006
0007
0005
0005
FFFF
0009
FFFC
FFF7
FFF1
0003
FFFE
FFFD
FFFE
FFF9
FFFA
0001
FFF8
0009
FFF3
FFFC
FFE8
0003
FFFE
FFFB
FFEF
0003
FFF0
000F
FFFD
FFFC
FFFD
0008
0017
FFFB
FFEC
0006
FFFE
0007
0003
0004
0001
0004
FFF6
0009
FFF8
0007
0003
FFFA
FFFC
FFF2
FFFD
0001
FFFF
FFFA
0006
0016
0014
FFF2
0005
FFFB
0001
0001
0001
000C
FFEE
FFFC
FFFF
000A
000A
0006
FFF6
FFF8
0004
FFF0
0007
0005
0001
000F
0008
FFF5
FFF5
FFFD
0000
FFFA
0004
FFF2
0004
FFF7
FFFF
FFF1
0012
FFF7
FFF8
000B
0009
FFF9
000E
FFFF
0005
FFFE
0003
000E
FFF7
000E
000D
0014
0007
FFF1
0003
0009
000A
0000
0006
FFF6
FFFD
FFFA
FFF8
FFFC
0007
0001
FFF7
FFFF
0015
FFFF
0005
FFFE
0008
0000
0009
0004
0003
0007
0004
FFFF
0004
FFFE
0002
0003
0005
FFF5
0001
000C
000B
FFFC
0003
0006
FFF5
0006
0007
0008
FFF5
0007
0004
000A
FFFC
FFF5
0004
FFFE
FFFF
FFFF
0003
FFFB
FFFF
0001
FFF8
FFFA
0002
FFF9
FFFB
FFF0
FFF4
FFFD
FFFB
FFF9
0006
FFFE
FFF1
FFF4
0007
FFF5
000C
FFFC
000E
FFF9
0016
0001
FFEB
FFF7
FFF6
000B
FFFE
FFF6
FFEF
FFF6
FFF9
FFFD
0004
FFFD
000D
000A
0000
FFF4
0000
FFFB
0009
000A
FFF7
FFF7
0001
FFFC
000D
FFF4
FFF6
FFF6
FFF4
FFFD
FFEE
FFFB
0006
0002
FFFC
0001
0004
0002
000D
0006
0007
0009
0012
0007
FFF3
FFF1
0001
000B
FFFF
000B
0000
FFFE
FFF7
000B
FFFE
0008
FFF8
0003
FFFC
0003
FFF8
0008
000A
0000
FFE7
FFFA
0009
FFFC
FFF4
000E
FFFA
FFF7
FFFA
FFF9
FFF1
FFFA
000D
0008
0001
FFFE
FFFC
0005
FFFC
0005
0008
0001
0006
0004
0000
FFFA
0002
FFFE
0004
FFFB
0004
000E
0001
0007
FFF9
FFFE
0003
FFF9
000A
0001
0004
0008
FFFE
FFF6
FFFD
0001
FFFF
000D
0006
000A
FFFC
0005
0007
FFF6
FFFA
FFFF
FFF4
FFFB
000C
000B
0000
FFFC
0001
0003
FFFD
FFF5
0008
0003
0006
0009
0006
FFFB
FFFB
FFF8
FFFB
0001
0004
000F
000D
FFF6
0004
FFFA
0009
0006
FFFD
FFFC
0015
0010
0002
000C
0001
0001
0007
FFF9
0002
0003
FFFA
FFFF
000A
FFF8
FFF6
0000
FFF9
FFFA
000C
0004
FFFD
FFF8
0011
FFFD
FFF8
FFFC
FFFD
000B
FFFD
FFF8
FFF8
0005
000F
000A
0002
FFFD
0006
000B
FFF6
FFFB
FFF3
FFFF
FFF7
FFF7
0009
0003
FFF8
FFFA
FFFD
FFFD
FFF9
0005
FFFC
FFF8
0008
FFF6
FFF6
FFF6
FFFF
0001
0001
FFF4
FFFC
FFFC
FFFF
FFFF
FFF8
0002
FFF2
FFF8
FFFC
FFFD
0006
0002
0002
FFFE
FFF9
FFFB
0007
FFFD
FFFA
0007
0007
FFF9
0006
000C
FFFA
0004
FFF5
FFFD
FFF9
FFFA
0004
0007
0007
FFF3
FFFE
FFFC
FFFD
FFF8
FFF5
FFF1
000F
0008
0005
FFFF
000E
0006
0000
FFFE
0003
0004
0000
0002
000A
0003
000F
0005
FFF8
FFF7
0000
0005
0008
FFF8
0009
0001
0008
FFFD
0002
FFF2
0004
FFF5
0000
FFF3
0003
FFFA
0007
FFFE
0000
FFED
FFF9
0008
0000
0003
0000
FFFF
0006
FFF6
0000
0009
0001
0003
FFFB
0003
0004
FFF8
0002
000A
0010
FFEE
FFF5
FFE5
0005
FFFF
FFF7
FFF5
0002
FFF3
FFF5
FFF5
FFF7
0000
FFF7
0010
0012
0013
0011
0009
0007
FFFC
0018
0009
FFF6
0012
0014
0004
0005
FFF5
0015
0000
0003
FFFA
FFF4
0007
FFF9
FFFD
0002
0007
0001
0000
FFFB
FFF6
0006
0002
0004
FFF3
FFFA
0003
0009
0000
0004
000D
FFFB
0003
FFF9
FFF0
FFFE
0001
FFF9
0004
0001
FFF5
0002
FFFF
0004
FFF5
0000
FFF9
0002
0001
0001
0002
FFFA
0000
0005
FFF9
FFF6
FFFF
FFF7
FFF7
FFFF
FFFD
0005
FFFC
0003
FFFC
FFF9
FFFE
FFFA
0003
FFEC
0003
0002
000D
0006
000A
FFF4
0004
0000
FFFF
0003
000A
FFFE
0006
0007
0009
FFF8
FFFC
0001
0002
FFF2
FFF9
0000
FFF7
FFFD
FFF0
FFFC
FFFD
0006
FFFB
FFFB
FFFA
0001
000C
FFF8
0004
FFFA
FFF9
FFF3
0003
FFF6
FFF9
0001
FFFB
0000
FFFB
0006
0000
0008
0006
FFF6
0004
0009
0007
0008
0000
FFFD
000B
FFF8
0003
FFF8
000F
000A
0001
0006
0008
0000
0004
0004
0004
FFF3
0001
0008
FFF2
FFF8
FFFB
000C
000A
FFF2
0001
FFFE
0002
FFF1
FFFD
0000
FFFD
0002
0007
000D
0005
0001
0007
FFF7
0003
FFFB
0005
FFF5
FFFC
FFFC
FFFA
FFFE
0002
000A
FFFD
FFFC
0004
FFFD
FFFB
0001
000E
FFF8
FFF9
0009
0003
FFF3
0004
FFFC
0002
FFF7
0004
000A
0002
0005
0004
FFF3
FFF6
FFFE
0005
0001
0009
0006
FFF5
0001
0005
0001
FFFD
FFFD
FFFD
0008
0007
0003
0001
0002
FFF7
FFF9
0002
0006
0001
0000
FFFE
FFFE
FFFC
FFF5
FFF6
0007
0005
0007
0000
0001
FFFB
FFFA
FFF8
FFFB
FFFB
FFFD
0001
FFFE
FFFE
FFFC
000A
FFFB
0002
0002
0001
FFFB
FFF8
FFFA
FFF8
FFF9
0007
0004
0000
FFF7
FFFC
FFF6
FFFB
FFFE
0000
0003
FFF7
FFF7
FFFE
0007
000A
0009
FFFA
FFF5
0003
FFFA
FFF9
FFFB
FFF9
0013
FFF4
FFF9
FFF8
0012
0003
FFFD
0000
FFF1
0008
0007
FFEB
0004
0004
FFF7
FFF2
FFFF
0005
FFF9
FFFD
0007
0000
0000
0003
FFFC
0008
0006
FFF1
FFF7
0003
FFFE
0001
FFEA
0009
FFFF
FFFD
FFF7
0003
000A
FFFD
FFFD
FFFD
FFF9
0008
FFFF
FFF5
0004
000C
FFFB
FFFA
0000
FFFD
FFF5
FFFE
0002
FFFA
FFFA
FFFE
0001
0008
FFF6
FFFB
FFF7
FFF5
0004
0005
0002
FFFC
0001
FFFF
FFF4
FFF7
0000
FFFB
FFFC
FFFD
0007
FFFB
0001
FFF8
FFFE
FFF9
000C
0005
0002
FFFB
0008
FFF5
0000
0004
FFFF
0003
FFFB
FFFE
0002
FFFD
0007
FFF5
0002
0003
0005
FFFC
FFF2
0005
0004
FFFE
FFFC
0005
0007
0003
FFFE
FFF8
FFFE
FFF9
000B
0004
0006
FFF9
0008
FFF1
0000
0004
0000
0002
FFF8
0005
0004
FFFB
FFFF
FFF9
FFFF
0009
FFF8
0004
0003
0005
FFFB
FFFD
0000
0003
0000
0000
0002
0005
FFFC
FFEE
FFFB
FFF1
FFF9
0001
FFFE
000A
FFFB
FFF8
0001
FFFF
FFFF
0000
FFF8
FFFA
0008
000C
0003
0002
0002
0008
FFFD
FFF5
0005
FFFA
FFFE
0002
0001
FFF6
0009
FFFB
0007
FFFE
0006
FFF6
FFFC
FFFC
000B
FFF7
FFFD
0001
FFF4
0006
FFFA
0004
0001
FFF5
000D
0009
0005
FFFC
000C
0002
0006
FFFC
000C
FFF3
FFFF
000C
FFFA
FFFE
0002
0001
FFFC
FFF9
0008
0012
FFFB
0001
000A
0001
FFFA
FFFF
FFFE
FFF8
000D
FFF9
FFF8
FFFC
FFEF
FFF7
000A
FFFD
0009
FFFB
FFFB
FFFE
0005
0002
0004
FFF8
0008
0008
0005
FFE2
FFF5
0007
FFFB
FFF3
0000
FFFA
0005
FFEA
0008
0002
FFF2
FFF8
FFFB
0007
0000
000B
FFEC
0001
0001
0010
FFFC
FFF9
0002
FFFF
FFFA
0000
FFFD
FFFF
FFF7
0000
0005
0017
0006
0002
FFF6
0004
FFF5
FFF7
0001
0009
0006
0004
FFF3
0007
FFF5
0002
FFF9
0001
0001
FFFF
FFFF
0019
FFFF
FFFD
FFF9
0014
FFF4
FFFF
0000
0004
0017
FFFF
FFF8
FFF7
0010
0003
FFF1
FFE8
FFFF
0002
FFFD
FFF8
0000
0002
000C
FFEA
FFFF
FFEF
0006
FFEE
FFF6
FFFC
000B
FFF7
0009
FFF0
000C
FFF7
FFF8
0015
0013
0009
0007
0007
000E
0007
0011
000A
FFF6
0012
0010
0005
000D
FFED
000F
000E
0005
FFFC
0003
FFEF
0005
FFF7
0008
FFFF
000C
0009
FFFA
0005
000C
FFF6
FFFF
0008
0006
0004
0003
0008
FFFA
0000
000E
0012
0000
FFF5
0006
0003
0002
FFF9
0007
000F
0010
FFFD
FFF9
FFF7
FFF6
FFF6
0001
0003
FFFE
FFFE
0010
000C
FFEE
FFF5
FFFF
0002
0005
0007
0006
FFFF
0004
FFF1
0001
0002
0004
0008
FFFD
FFF4
FFFC
FFFB
FFFF
0005
000B
FFFF
FFF1
FFF6
000C
0000
FFFD
FFFC
000F
FFF8
0019
0009
FFED
FFF3
FFF9
0006
0008
FFFF
FFFB
0008
0008
FFF5
0004
FFFF
0001
0013
000E
FFFE
0015
FFFC
0007
000B
0001
0003
FFFD
FFF9
FFFC
0000
000B
0006
0000
0007
FFF6
FFFC
0002
FFFB
000B
0001
0004
000C
FFFD
0002
0005
FFF4
000D
0002
0006
0006
0004
0003
000A
FFF4
000C
000D
FFFC
0007
000F
000A
FFFC
0000
0005
000B
FFFD
0004
FFFC
0009
FFF9
0008
FFFF
FFFF
FFF2
FFF9
0003
FFF1
FFFE
0000
FFF3
FFF6
FFFB
FFFA
FFF6
FFEF
FFFC
0007
FFFD
FFFE
FFFE
FFFA
FFFD
FFFB
0001
0001
FFFB
FFF9
0005
0002
FFF7
0008
0004
0000
FFF6
FFFD
FFFA
FFFD
FFFC
FFFC
0005
0013
FFFC
0002
FFFE
FFF2
0005
0007
FFF8
0006
FFFE
0004
0005
FFF7
0003
0008
FFF4
FFF3
0002
FFFC
0005
0003
0009
FFF7
0005
FFF9
000F
0002
0008
000E
0001
0001
FFFB
FFFA
FFFF
0001
FFFE
0009
000B
FFFA
000B
FFF2
0005
000D
0005
FFFA
FFF9
FFFC
0006
FFFA
0005
FFF1
0007
FFF9
0007
0001
FFFE
FFF6
0006
0001
0003
0004
0003
0001
000F
FFF5
FFFF
0008
0012
0008
FFFF
0000
0008
FFF8
FFFD
FFFB
0005
0003
FFFE
FFF6
0000
FFFC
0004
FFF7
0000
FFFD
0014
0000
000A
FFF4
0000
0009
000A
000D
000C
0000
0003
FFEF
0000
0005
0009
0009
0007
000A
000A
FFF1
0004
0008
0004
0003
0002
0001
FFFC
0006
FFFD
0007
FFFD
000E
FFFD
0000
0005
0001
FFFE
0007
0008
0009
0008
0007
FFF9
0000
0010
0008
FFFC
0007
0006
FFF7
FFFC
0006
FFFE
0005
FFF7
FFF9
FFFD
0001
FFFC
FFFA
FFED
FFF3
000C
0002
FFF6
0001
0002
0005
FFFD
FFFA
0004
FFFD
0002
0003
0015
000A
FFFB
FFFA
FFF8
FFFF
FFF9
0006
FFF7
000A
0004
FFFF
0009
FFF6
0000
FFF6
FFFD
FFF8
0004
0000
000D
FFF9
FFFE
0004
FFFC
FFFB
FFFC
000B
0008
000A
0003
FFFE
0000
0000
FFFD
0007
FFFF
0006
000C
0000
0009
0001
000E
0008
0002
FFEC
FFFB
FFEF
FFFB
FFEF
FFF1
FFF9
0001
0000
FFF7
FFF7
FFFA
FFF5
FFFC
0012
0010
0004
000D
0010
000A
FFF3
000B
000F
FFF0
0004
0012
0002
0006
FFF7
000F
0004
FFFA
FFFB
0007
000C
FFF7
000C
FFF3
FFFD
FFFA
0004
FFFB
FFF8
0007
0011
0000
0000
FFFC
FFF4
0004
FFF9
FFFE
0010
0003
FFFD
FFF6
FFFE
0002
FFFE
FFF6
0005
FFFE
FFF9
0004
FFFF
FFFE
FFF3
FFFD
0002
FFF1
FFFB
FFFC
000D
FFFB
FFF9
FFF0
FFFB
0001
FFFC
FFFC
FFF8
FFFD
FFF1
FFF5
0004
0002
FFF8
0006
FFF7
FFFA
FFF9
FFF5
0001
0000
FFFC
000D
0009
0004
FFFD
FFEF
000B
FFFE
FFFF
0000
0002
0006
0007
FFF0
FFF6
0006
0003
FFF8
0003
FFF3
FFF2
FFFB
FFF9
FFF3
FFFE
0005
FFFB
FFF1
FFF3
0004
0000
FFF2
0007
0005
FFF4
FFF9
FFFB
0002
0002
0002
FFF7
0007
0007
0000
FFF7
FFF6
0002
FFF9
0008
0008
FFFB
FFFE
0003
0002
FFFD
000A
FFFF
0000
0014
0009
0013
0000
FFFD
000B
FFF6
FFFD
000E
FFF9
0015
000E
FFFA
0011
000C
0007
0004
0009
000C
0003
0003
0008
FFF8
FFF6
FFF8
FFE6
FFFE
0009
0003
0005
0003
FFFB
FFED
FFF5
FFF8
FFF7
000A
FFFF
0005
0008
FFFE
FFF0
FFF9
000B
FFFF
FFFF
0004
000A
FFFF
0002
0001
FFFA
0004
FFF3
000A
0008
FFEC
0005
0002
FFFC
0001
0010
FFFF
FFF5
0007
000D
000B
FFFF
0002
0000
0007
0001
FFFC
000A
0000
0000
0003
0006
FFFB
FFFC
0005
0004
FFF6
FFF9
FFFE
FFFD
FFFE
FFFB
0007
000A
FFFC
FFF8
FFFB
0000
FFFD
FFFC
0007
FFFB
0006
0003
FFF6
FFFF
0009
FFFD
0005
FFFF
FFFE
0006
000C
0004
0004
0002
0002
FFFF
0003
FFF8
0007
0001
FFFB
FFFC
000F
000C
FFFC
FFF8
0004
FFF4
FFFC
FFFC
FFF6
FFFB
FFFC
FFFB
FFFD
FFFF
FFF7
FFFC
0003
FFF2
FFF8
FFF9
FFFA
0002
FFF8
0004
FFF7
0005
FFFE
0000
FFFE
FFFA
0008
FFFD
FFE7
0003
FFFE
FFFC
FFF2
0009
0000
0002
FFFD
FFFD
0002
0007
0006
0002
0003
000F
FFF7
FFFB
FFFD
0006
0000
0003
FFFE
FFFC
FFFE
000B
0012
0000
FFFF
0004
0001
0009
0007
FFFE
0001
0010
FFFC
0006
0008
0012
0001
FFFE
000F
0010
FFEF
0002
0006
FFFE
0000
FFFE
FFFD
FFFC
0005
0000
0009
FFF8
FFF9
FFFC
FFF0
FFFC
0001
FFF4
0000
0001
0006
FFFB
0007
0000
0007
0005
FFFD
0001
0002
FFFD
FFFD
000C
0009
FFFF
FFF9
FFF5
FFFB
0001
FFFC
0002
0002
0005
FFF6
0000
0001
FFFC
0000
FFFF
0000
0002
0002
0002
0001
0001
000A
FFFD
FFFA
0002
0000
0001
FFF9
FFFF
FFF8
0002
FFFF
0006
0000
FFFA
FFF9
FFF7
0007
FFFB
FFF8
FFF7
FFFB
000B
0007
FFFA
0006
0004
FFFE
FFFB
FFFC
FFFB
FFFC
FFF9
FFFE
0002
0013
FFFF
FFFA
FFFE
FFF6
0002
0003
FFF7
0007
FFFC
FFF5
000C
0002
FFF9
0003
FFF6
0003
0004
0005
000C
FFFC
0005
0007
0006
FFFB
FFFC
0007
0003
0000
0003
0000
0007
FFF8
0000
0006
0007
FFFB
0007
FFF6
000E
FFFA
FFFC
FFFF
FFFE
0008
FFF1
0009
0007
FFFF
0017
0008
FFFA
FFF3
FFFB
FFFB
0000
FFF7
0008
FFF7
FFFE
0003
FFF7
FFF5
0003
FFF3
0004
FFF8
000A
0000
FFF9
0005
0004
000E
FFF7
0000
FFF5
0003
FFFB
FFFF
0003
000A
FFFD
0007
0006
0005
FFF8
0000
FFF9
0011
0001
FFFD
FFFA
0008
0007
FFF8
0007
0001
FFF3
0007
0001
FFF6
0002
0003
0001
FFF9
0000
FFF8
FFFE
FFF0
FFE5
FFEF
FFF7
FFFA
FFF6
FFFC
000D
0006
0002
FFF9
FFF8
0002
FFEC
0000
0007
000D
0015
FFFA
FFFF
FFFA
000C
000C
FFF8
0008
0002
0000
0008
FFFA
0003
0015
FFF3
000C
000B
000C
FFF6
000F
FFFA
0012
FFF3
0016
FFFD
FFFB
0008
0000
0005
FFF7
FFFA
FFFF
FFF4
FFFB
FFEC
0009
FFFA
FFF3
FFF7
FFFA
FFF9
FFED
FFFB
000E
0000
FFF9
0004
FFF5
0001
FFFD
0004
FFEF
FFFA
FFF7
FFFE
FFFE
000E
FFE4
0004
FFF9
FFFF
0009
000A
0006
0000
0005
0010
FFFD
000A
0008
FFF9
0008
000A
0013
0009
FFF5
000E
0009
0000
FFFE
000A
FFF4
000D
FFF9
000B
FFFC
0003
FFFF
FFFF
FFFE
0005
FFF7
FFF8
0002
0007
000B
0001
0005
0005
FFFF
000A
0009
0002
0001
0000
0003
0008
FFFF
0008
0005
0001
FFF6
0004
000A
FFF2
FFF6
000D
0002
0001
0003
000F
FFFE
FFF4
0000
FFEF
FFFF
FFFB
FFFC
000E
0000
FFFF
FFF9
FFFD
0008
FFFF
0002
0001
FFFF
FFF5
FFFF
0006
000A
0009
FFF4
FFF3
0004
000C
FFFD
FFFD
FFF7
0005
0004
0005
0013
0003
0004
FFF3
FFFF
0001
0008
0004
0005
000A
000C
FFFD
0007
FFF5
0004
FFFE
FFF9
0009
0000
0000
0005
FFF6
0008
0002
0000
FFFE
0000
0000
000D
FFF9
0007
FFEA
0005
0002
0010
000B
0001
FFFB
0008
000C
FFFF
FFFB
0001
0001
FFFD
FFFF
FFF8
0002
0008
0001
000C
0007
FFF9
0015
FFF4
FFF8
FFE4
FFFF
FFF2
0003
FFF5
0002
FFEA
0011
FFF9
FFF5
FFED
FFFB
000A
000F
FFFC
0008
0006
FFF9
FFF8
FFFD
0009
0007
0004
001B
FFFB
0014
FFEB
0011
FFFD
0001
FFFC
FFFD
FFF8
0009
0003
FFFB
0002
0004
FFFF
0001
0009
0003
0002
FFFC
FFFD
0007
000A
FFFD
0006
FFFF
0015
0006
FFFC
0001
FFF9
FFFE
0004
0000
FFFF
0006
FFFD
0005
FFFA
0008
0003
FFFF
FFF6
000C
FFFA
FFFE
0006
000A
FFF4
FFF7
FFF3
000B
0002
FFFF
FFFA
FFFB
0000
FFFC
FFF8
0003
0009
0009
000E
0009
FFF3
000B
FFF8
FFFF
FFFE
0009
FFFB
FFFB
0002
0005
0004
0008
FFFF
0006
0006
0017
0007
0001
0008
FFF4
000A
FFFC
0007
0000
0007
0006
FFFF
0004
0008
0008
0007
0004
FFF5
0008
FFFA
0007
0006
0006
0001
FFFF
FFFD
FFFA
0000
0006
FFFE
FFFF
0006
000B
FFF7
0005
0000
FFF7
0001
FFFE
0005
0005
0009
0001
FFFB
0007
000D
0006
0004
FFFE
FFF9
0007
0000
FFFE
0006
000B
FFF7
FFEF
FFFE
0004
FFFD
FFF8
FFFA
000D
0001
0007
0001
0002
FFF6
FFF6
FFFE
FFFC
0007
0000
0002
0009
FFF5
000B
0002
0004
0007
FFF9
0000
0001
FFF5
0002
FFF9
FFFB
FFFE
000B
0006
0000
0008
FFEE
0005
FFFE
0004
FFFD
FFFC
0008
FFFF
FFFE
FFF4
FFF7
FFFF
0005
FFFC
0001
FFFC
0002
0005
0002
0007
0000
FFFA
FFF7
0007
FFF5
FFF8
000A
0002
0002
FFFD
000A
FFFA
0000
FFF9
0010
0002
000A
FFF0
0003
0001
FFF0
0004
000C
000C
FFF8
0001
0009
FFFB
0002
000A
FFFE
FFFF
0009
FFF9
0010
FFFC
000B
0009
0000
FFF6
FFFD
FFFA
0000
FFFE
0001
FFF9
FFFE
0002
0004
FFE7
FFF6
FFFA
0008
0004
0001
0002
FFFE
0002
0005
FFF2
0007
FFF6
0005
0002
0007
0002
0000
FFFB
0001
FFFA
FFFA
FFF9
000A
FFFE
0002
FFF6
FFF8
FFF0
0000
FFFF
FFF5
0000
000A
FFFF
0006
0006
000C
0008
0003
0001
0002
000C
0014
0005
0004
FFFC
0009
0009
0002
FFEF
0004
FFF5
0001
FFF0
FFF7
FFF7
FFF5
0001
FFF9
FFFE
0002
FFFD
FFFD
0001
0001
FFFF
FFFB
000B
0009
FFFC
FFFC
0004
FFF3
0002
FFF9
0004
000A
FFFF
000F
FFFC
0009
FFF9
0008
0009
0003
0004
FFEF
0006
FFF4
0006
000F
0009
FFFB
000F
0010
000B
FFF5
0002
FFFB
FFFB
FFF6
FFFB
000D
FFF2
0000
FFFD
FFF6
FFF6
FFFD
FFEF
FFFB
FFFD
0000
0009
FFED
FFFD
0003
FFFE
0007
000A
FFF5
0006
FFF7
000C
FFFF
FFFE
FFF3
0007
0004
0006
0001
0000
0007
0001
0000
FFFD
0005
0003
FFFD
0003
FFF3
0007
0009
0001
000A
FFFC
0001
FFFB
000A
0005
FFE6
FFF3
0006
FFEF
0001
FFF4
0016
FFFD
000B
0003
FFF1
FFFA
FFF9
0006
0009
0008
0003
0001
000B
FFFD
0000
000D
FFFA
FFF8
FFFC
000E
FFF9
FFF3
0008
FFFD
0004
FFFC
0007
FFFF
0006
0005
0006
FFFD
FFFE
0008
FFFF
0003
000F
0008
FFFA
0003
0000
FFFE
FFEA
FFFE
FFFE
FFFD
FFFE
FFFB
FFF0
0001
FFFE
FFFE
0009
FFFD
FFFE
0009
FFFF
0005
0002
000E
FFFE
FFFD
0005
0001
FFFB
0005
FFF8
FFFF
0006
FFFF
0000
FFF5
0004
000C
0007
FFFD
FFFD
FFFB
000A
FFFC
0003
FFF8
0002
FFFE
0001
0005
FFFE
0005
FFFD
FFFE
0008
0001
FFFE
000D
0007
0001
0004
0009
FFF8
FFF5
0000
FFFD
0008
0001
FFFF
FFFA
0000
0001
FFFA
FFF6
FFF4
FFF9
FFFE
FFF8
0000
0003
000B
0002
0005
FFFE
0008
FFF7
FFE6
0000
0006
FFFA
0003
FFF3
000B
FFFF
000E
0000
FFFB
FFFC
0001
000E
000F
FFFA
FFFC
0006
0007
FFFA
000C
FFFB
FFFC
000F
0005
0002
000E
0002
000A
FFFD
0005
FFF1
0001
FFF7
000B
FFF3
0003
FFFB
000A
0000
FFFE
0000
0009
0000
FFF2
0008
000D
000A
0008
0006
0007
FFFD
0001
000D
FFFF
FFFD
FFFF
0007
0002
FFF3
000B
0017
0006
000B
FFF9
0007
FFFF
FFF1
0000
0002
FFF3
0005
FFF5
FFF5
FFFA
0003
000A
FFFE
FFFD
0005
0002
FFFA
FFFF
FFFA
FFFF
FFFE
FFF8
0010
FFF7
FFF8
0003
FFFD
FFFB
0005
FFF5
0004
FFFF
0006
0002
FFFC
000C
FFF8
FFF8
FFFB
FFF7
0000
FFF4
0002
0005
FFF8
FFFD
FFFF
FFFE
FFF7
0003
0001
FFF4
FFF3
FFFC
FFF6
FFF0
FFFF
FFF7
000B
FFFD
FFFA
FFFF
FFF7
FFFA
FFFE
FFFB
FFFF
FFFD
FFF2
0002
0008
FFF3
000E
0009
0003
FFF9
FFFD
0001
0003
0000
0006
FFFE
0001
000C
0000
0000
FFF7
FFFF
0009
FFF7
0000
0000
0000
000D
FFFA
FFFC
FFFF
0004
FFFB
0003
0000
000D
0001
0004
0001
FFFF
FFFA
FFF6
0008
0009
0001
0005
0000
0005
FFF9
0004
0002
FFFA
000B
0005
FFF8
0000
FFEF
0003
000A
0000
0003
0000
0001
0001
0001
0006
FFFF
FFF6
000A
0001
FFF6
0001
0008
0001
FFF2
FFF3
FFF0
FFFD
FFFB
0000
FFFB
0007
0001
0008
0002
0001
0000
0000
000B
FFF3
0002
0005
0002
000B
0004
FFFA
FFF8
FFF3
FFF8
0005
FFEE
0003
0004
FFF8
0004
0006
FFFE
0002
000B
0003
0001
0002
FFF4
0000
FFF9
FFFA
000F
0000
0005
FFFC
0004
0000
FFEB
FFFF
FFFA
0003
0009
FFF8
0008
FFFE
FFFE
FFFF
0011
0005
FFF6
000D
0004
FFF0
0004
FFF0
FFF7
FFEF
FFFD
FFFB
000B
FFFA
FFFC
FFF3
FFF2
FFF9
FFF3
0005
000A
0004
0010
FFED
000C
FFF4
FFF8
FFFE
0006
FFFA
FFFA
FFF5
0004
FFF0
FFFC
FFFE
0003
0009
FFEE
FFFA
0011
0014
FFFD
FFF2
0008
0006
FFF8
0002
FFFE
FFF4
000C
FFF9
FFFC
FFF6
FFFD
0005
FFF5
0006
FFFA
FFFA
FFFA
FFFD
FFF5
0003
0003
0005
FFEC
0000
0001
000A
0002
0000
FFFA
FFFE
FFFF
FFFF
000B
FFF7
0003
FFFD
0002
FFFF
FFFF
0005
FFF0
0006
FFFF
FFFD
FFFE
0004
FFFF
0004
FFEB
0008
0000
FFFC
FFFA
0006
0003
0008
FFFC
FFFB
0004
FFFC
000F
0000
0006
FFF8
FFFA
FFFB
0005
0007
0004
0004
0001
0006
FFF6
0007
FFFB
0002
FFFF
FFFE
000B
FFF1
FFF9
000C
0007
FFFD
0002
0010
0005
FFED
FFF6
FFFE
FFFB
FFFF
0006
FFFF
FFFE
FFF5
FFF1
000E
0002
0004
0006
0003
0001
0005
0004
0002
0000
0002
0002
0000
0002
0008
0004
FFFF
0005
FFFA
0002
FFF3
000A
FFFD
0005
FFF6
0005
0005
0009
0006
000B
0009
0006
0007
000C
FFFE
000C
FFFF
0005
FFFB
0000
FFFC
0008
FFF8
0006
0006
0006
FFFD
FFFD
0005
FFFD
FFEF
FFFE
FFFD
FFFC
FFFE
FFFA
FFFD
FFF0
FFFF
0002
0002
0007
FFFE
FFF1
0008
FFF4
FFF9
0008
FFFA
000B
FFFF
0005
FFFE
FFFA
FFFD
0009
0004
0005
0000
FFFF
FFFD
0010
FFF7
0000
FFFC
FFFD
FFF3
0004
FFF8
FFEE
FFEB
0004
0002
FFEE
FFF4
FFF8
FFF3
FFFB
0004
FFEE
FFED
FFFE
FFF1
0003
FFEB
FFF7
FFFE
FFFE
FFFD
FFFA
0009
FFF7
FFFA
FFF5
FFFE
FFFB
0003
0006
0011
0003
0008
0005
FFFF
0007
FFFF
0002
0010
0015
0009
0000
FFFA
FFF6
0006
0012
0004
0004
0000
0001
FFFF
0005
000F
FFFE
FFF9
FFFD
0000
FFFB
FFFC
0008
0005
FFFB
FFF2
FFFD
0007
000C
FFFE
FFFB
0003
FFF6
FFFB
FFF5
0009
000A
FFFC
0004
0001
FFFC
0004
0000
FFFC
0008
0010
FFFD
FFFD
FFF8
FFF5
0002
0003
0000
000B
000C
0006
FFF4
0001
FFFC
0001
000E
0005
FFFF
0004
000B
0000
FFED
0004
000F
000B
0000
000D
FFFD
000C
FFFD
000A
FFFF
0001
0000
0000
FFFA
FFF0
FFFE
0002
FFFD
0003
0004
000B
0003
FFF2
0008
FFF9
FFFD
0003
0008
0005
0007
FFF5
FFE9
000B
0007
FFFD
000A
000B
0005
0011
FFFB
0007
000C
0007
0001
FFF8
0000
FFFD
FFFF
0003
0001
0006
0001
FFFE
FFFF
FFFE
0001
0007
0001
FFFF
0014
0001
0001
0002
FFFF
0011
FFFE
0008
FFFF
0003
0002
0005
0000
0007
FFFA
FFFA
0004
0001
0003
FFFD
0000
0000
FFF9
FFFD
FFFC
0000
FFFF
0001
0004
FFFB
0000
0000
FFFC
FFFD
FFFD
000A
FFFD
0009
FFFE
FFFA
FFFE
FFF2
FFFB
FFFB
FFFF
0003
0009
FFFA
000A
0003
0008
0007
FFFB
0000
FFFA
0005
000A
FFFB
FFFC
FFF8
0001
0003
FFFA
0006
000B
0003
FFFE
FFF9
FFFB
0005
FFFE
FFFB
FFFE
0002
FFFE
FFFB
0005
FFF9
0003
FFF4
0002
0005
0012
FFF4
000E
0006
000D
FFFF
0008
FFF6
0000
FFF6
0000
0006
FFED
FFE9
FFF8
FFFC
FFEE
FFF5
FFFA
FFF5
FFEC
0002
0003
FFE8
FFF4
FFFA
0003
FFEC
FFF9
FFF7
FFFA
FFF3
FFF9
0002
FFFD
0003
FFFC
0003
FFFA
FFFC
FFF8
0010
FFFE
0008
0003
0007
0002
000C
0002
0012
FFFB
FFFD
0008
FFFF
FFF8
0002
FFFC
FFFE
FFF7
0004
FFF3
FFFA
FFF8
FFFF
FFF7
FFFC
FFF2
FFED
FFFD
0008
FFEA
FFF2
000C
FFFF
FFFB
FFF8
FFF8
0002
0014
FFF2
FFFB
000C
FFFF
FFFA
FFF8
FFFE
0003
FFFE
FFFF
FFFA
FFFA
FFFA
FFF9
0010
FFFF
FFFF
FFF9
FFF7
FFFC
0000
FFFE
000D
FFFF
000A
FFFD
0001
FFF7
FFF9
0006
0005
FFF7
FFF9
0005
FFFE
FFF7
FFFF
FFFE
0008
0003
FFFF
0000
0012
FFFC
0000
0012
0006
FFFC
FFFD
FFF9
0007
FFFB
FFF8
FFFE
FFFE
0004
FFFD
0002
0003
FFFF
FFF8
0002
0005
0009
000B
0006
000B
0007
0008
FFFC
FFFB
000A
FFFF
0008
0004
FFF2
0006
FFF7
FFFF
0003
FFFF
FFF8
0000
FFF5
0004
FFFF
0014
000A
0010
FFF3
0004
0004
FFF3
FFFF
FFFC
FFF9
FFEC
0001
0003
0007
FFF9
FFFF
0000
0002
0006
FFFD
FFF4
000B
0003
FFFA
0010
FFFD
FFFD
0000
0007
0000
FFF6
000A
000F
0006
0002
0000
FFFC
FFF9
FFF8
FFFF
0002
FFF0
0009
FFFD
0008
0000
0004
0002
0007
FFFB
0003
0010
FFFC
FFF3
0003
0003
FFFF
0005
0001
FFF9
000B
0002
FFF8
FFFB
0002
FFFC
FFFF
0000
0002
0009
FFF7
FFFB
0005
FFFE
0006
0003
FFFC
FFF3
000A
FFFA
0002
FFFE
0003
0001
0007
FFFC
0003
FFF8
FFF7
0001
000D
FFFE
0005
0003
0001
0003
0001
0006
FFF8
FFF3
FFFA
000B
0009
0002
0002
0006
0011
0000
0001
FFFB
FFF6
FFFF
FFF9
000A
FFFD
0006
FFFF
FFFA
0000
FFF3
FFFE
FFF9
FFF8
FFFA
FFFC
FFF7
FFFF
FFF4
0004
FFF7
000C
0004
000D
FFFF
FFF4
FFFF
0003
FFF7
FFFE
0007
0010
0005
000A
FFFA
FFF9
000F
0000
0000
0006
FFFC
0004
0002
000A
FFEC
FFF7
FFFF
0001
FFF6
0000
FFF6
000A
0004
000A
FFF3
FFFF
FFFA
FFFB
0012
0008
0011
0001
0004
FFF9
FFFE
0006
0012
0000
FFFE
0009
0006
0003
FFF5
000E
0006
0010
0009
0006
FFF9
FFFD
FFF7
0006
FFFE
0001
000E
FFFB
FFF9
FFF5
FFF6
FFFB
0000
FFFA
0001
FFF5
FFFD
0008
FFF5
0002
0001
0007
000B
0001
FFF4
FFFD
FFFE
0003
0002
FFF9
0002
FFFA
0002
0005
0003
0007
FFF7
0005
000B
0005
0003
FFFB
0001
0000
0003
FFFE
FFF0
0000
FFFB
FFF7
FFFF
0003
FFFF
FFFE
FFF2
0003
FFF3
0000
0000
0000
0001
0002
0007
FFFB
0005
000A
FFFB
0003
FFF5
FFFB
0002
FFF4
000C
0008
0001
FFFB
0002
0001
FFFA
0006
0006
000C
000C
0003
FFF9
0007
0004
FFFB
0007
FFFB
000B
FFFB
FFFB
0005
FFFC
000C
FFFC
FFFF
0007
0008
0007
0005
0007
FFF8
0005
0005
FFF9
0003
FFFC
0003
0004
FFFB
FFFB
FFFE
0005
FFFE
FFFF
FFF1
FFFD
FFFD
0006
FFF8
FFFC
FFFF
FFFC
0008
FFFC
FFEC
FFF9
000B
FFF7
0010
FFFD
0009
0003
000A
FFFF
FFF9
0007
FFFE
0000
FFFD
0005
0001
FFFB
0000
FFF3
000D
0000
0001
0004
0006
FFFE
0005
FFF6
0005
0016
FFFF
FFFE
0005
FFF7
0002
FFFB
FFFB
FFFC
FFF8
0003
FFFA
FFF0
FFFD
0007
FFFF
0002
0008
0005
000E
0004
0005
FFED
0000
0004
FFFE
0008
000D
0004
FFF8
FFFC
0005
FFFE
FFF5
0006
FFEE
0007
FFF7
FFFC
0005
FFF6
FFFD
000C
FFF2
FFFE
FFFF
000F
FFFE
FFF9
0007
FFFC
000C
0001
FFFA
0002
000C
FFFF
FFFB
FFFE
FFFE
000F
0006
000D
FFF6
000A
FFFE
0008
FFF4
FFFC
FFFB
0004
0007
0002
0004
000C
0001
FFFB
000C
0001
FFF3
0000
0000
FFF9
FFEE
FFF5
FFF5
000A
0001
FFFC
FFFA
FFFE
FFF4
FFF0
0005
0006
FFFD
0005
FFFE
0008
0005
0005
0004
FFFF
FFFF
0008
FFF0
FFFF
FFFF
FFF7
FFFC
000D
000B
FFEC
FFF1
FFF5
FFF6
FFED
FFF9
000D
FFEA
FFF2
0001
0000
FFEE
FFFF
FFF0
000B
FFEB
FFF1
FFF8
0005
000B
000B
0002
0005
000C
0005
FFFD
0000
FFFA
0003
FFFB
0005
0001
FFF6
FFF6
0002
0003
FFF1
FFF6
0009
FFFE
0000
0009
FFF9
FFF8
FFF9
FFED
000B
FFFC
0000
FFFC
FFFA
0005
0001
FFFD
FFF5
FFF8
FFFE
0002
FFF6
0012
FFFE
FFF4
FFEF
FFFD
FFFC
0003
FFFB
FFFF
0000
FFFF
FFFC
000A
FFFD
000D
FFFB
0000
FFFA
0006
FFF6
0001
0007
FFED
FFFD
FFFD
FFFF
FFF7
0004
FFFC
0008
FFF6
0002
FFF8
0005
0002
FFFE
FFFA
FFFC
0000
0004
0009
0004
FFFE
FFF7
0006
0000
FFFB
FFFB
FFF8
0000
0001
FFF7
FFFB
0005
000A
FFFD
0002
FFF5
FFF8
FFFD
FFF9
FFF9
FFFB
0009
0007
FFF8
0001
FFF4
FFFD
FFF8
0001
0002
0002
0004
0006
FFED
0015
0004
000B
0009
FFFE
0006
0002
FFF6
0001
0002
FFFE
0003
FFFD
FFFD
0007
FFFC
0002
000F
FFF4
0003
FFFF
FFFF
0003
0003
FFFF
0002
FFF8
FFF5
0004
FFFA
FFFC
0002
FFFC
FFF7
FFF9
FFE7
FFFC
FFF9
0001
000A
FFFE
0002
FFFE
FFFF
FFFE
0007
FFFC
0005
FFFA
0001
FFF3
FFFA
0005
0005
000C
0001
0007
FFFE
0001
FFFE
FFF9
0006
0007
0006
FFFD
0001
FFFD
FFF4
0001
0000
FFF9
0008
FFFC
FFF6
FFF9
FFFF
0008
0008
FFFF
0006
0001
FFFB
FFFF
FFF7
000A
FFF8
FFF6
0002
000B
000B
0004
0006
FFFB
0002
0003
0003
0009
0007
FFFB
000F
0004
FFF8
0005
FFF5
0003
FFFB
FFFB
FFF9
FFFA
FFFB
FFFE
FFF4
FFF3
FFFC
0003
0005
FFF9
FFFC
FFFB
FFF7
0004
0002
0005
FFFD
0002
0000
FFF0
FFF8
000B
0006
0007
FFFA
0001
FFFE
000D
0001
0005
0001
FFF2
FFFF
FFF3
FFFD
FFFA
FFFF
FFFE
0004
0007
0007
0005
FFFB
FFFC
FFFB
FFFC
FFEE
0009
FFFA
FFFD
FFF6
FFF6
FFFC
0000
0007
0007
0014
0008
0003
FFF7
0006
FFFA
FFFC
0003
0003
FFEE
FFF6
0001
FFF7
FFFD
FFFF
0006
0000
000A
FFFF
FFFB
0006
0001
0001
0002
0009
0006
FFF8
0004
FFFA
0004
FFFE
0007
0009
FFFB
0003
FFF7
FFFE
0004
FFFC
FFF8
0003
0001
0003
0001
FFFF
0005
0006
0002
FFFD
0008
FFFE
FFFE
FFF7
0004
0006
FFFD
0015
0000
FFFF
FFF8
0001
0006
FFFE
FFFE
000B
FFFF
FFFF
0012
000B
0001
0008
FFFE
0008
0000
0010
FFFB
0007
0001
0005
FFFA
FFFD
FFFA
000C
FFFE
0009
0000
FFF4
FFFC
FFFF
0000
FFF2
FFF7
FFF8
FFFB
FFF3
FFF9
0001
FFF6
FFFC
0002
000B
FFFF
FFFB
FFFC
000E
0001
0013
FFFB
0010
0013
0002
FFFD
0007
0001
000B
FFFC
000D
000D
FFF3
FFEC
FFF0
0000
FFF0
FFF5
FFFD
0000
FFF4
FFFD
FFF8
FFEB
0002
FFEE
000F
FFED
FFF7
FFF1
0009
0001
0002
0005
FFFF
FFF6
FFFC
FFF9
FFFF
FFEF
FFFD
FFFB
0005
000C
FFFA
0000
0003
0000
FFFB
0005
0007
FFFA
FFFF
FFFB
0004
FFFE
FFFD
0001
0009
FFFF
FFFB
FFF6
0005
000A
0002
FFFC
FFFB
FFF5
0003
FFEF
FFFE
FFFA
FFF9
FFFA
FFF9
0002
FFFA
0002
0006
0005
0001
0005
FFF0
FFF9
0007
0006
0004
FFFA
FFFF
FFED
000D
FFFB
0007
0009
FFF3
FFF5
FFEE
FFFA
FFFC
FFFE
0000
FFFE
FFFB
0003
FFFD
FFF8
FFFA
FFF1
000A
000E
FFF4
000E
0004
0000
FFFD
0005
000D
0000
0003
0007
000E
0005
FFEF
0004
000E
FFF1
0004
000F
FFFD
FFF9
FFFF
0012
0013
FFF0
000E
FFFB
000A
000B
0011
0001
FFF5
FFF5
0002
FFF7
0004
FFF8
FFF7
FFFB
FFF5
FFFB
FFF8
FFF3
FFFF
FFF4
0006
FFF4
FFFF
0008
FFFE
FFEF
FFFF
0009
FFF1
000B
FFF5
0015
FFFE
000A
FFF4
FFF1
FFFF
FFF9
0009
0003
0001
0001
FFFA
0008
FFF8
0002
0004
FFFC
FFF8
FFFE
0007
0005
FFEF
000A
FFF9
0008
0000
FFFB
0001
000F
FFFF
0001
0000
0001
0004
FFFD
FFF8
000F
0004
0006
FFFF
FFF1
FFFA
FFF4
0003
0009
000E
FFF8
FFFC
FFFD
FFF7
FFFA
FFF5
0000
0005
FFF7
FFF9
FFF6
0001
0004
0006
0003
0001
FFFE
0004
FFFA
FFFB
0002
FFF9
0002
0008
FFFC
FFFE
0002
0003
0001
0005
FFFC
FFF8
0008
FFFB
FFFD
000B
FFFC
0004
FFFE
0003
0007
FFF8
FFFF
0003
FFFA
FFFD
FFFD
0005
FFFD
0003
FFF9
0006
0002
FFFC
FFFD
0005
0005
FFFE
FFFB
0001
FFFD
0005
FFFF
0008
FFF6
0001
0007
0008
0000
FFFF
FFFD
FFF9
0000
FFF2
FFFA
FFFE
0002
0000
FFF7
0011
FFF6
0005
FFFA
0009
FFFC
0009
FFFD
0002
FFF7
FFFE
FFFE
FFF3
FFFF
FFFD
FFFA
FFF9
0001
0001
FFFF
FFF3
FFF1
FFF4
FFF5
0002
FFF2
FFFF
FFF2
FFFD
FFFD
0006
FFF9
FFF5
0006
FFF9
FFFF
000D
0000
0008
0001
0002
000A
FFF6
FFF6
0002
0001
FFFC
FFEE
FFFE
0003
FFFE
FFFF
FFF2
FFFB
FFFD
0001
0005
0001
0006
FFFE
0001
FFFF
0000
FFFF
0008
FFFD
0000
FFF1
FFFE
0001
FFF2
FFF7
000A
0006
FFF9
0001
000E
FFF9
FFFF
000E
000A
0003
FFFB
0004
0003
FFFD
FFFA
FFFC
0004
FFFD
0009
0000
FFFD
FFFF
0000
FFFD
000E
FFFA
0002
FFFA
0001
FFFA
FFF9
FFFB
000B
0001
FFFB
0002
FFF8
0006
0005
FFFF
0009
FFFE
FFFA
000B
FFF9
0001
FFFC
0007
FFFC
FFF7
FFF9
FFFC
0004
0007
0000
FFFA
FFFB
0006
0002
FFF6
0002
000A
0010
FFFA
FFFE
FFFD
0007
FFFB
FFFE
FFFD
0007
FFF8
0009
0009
0003
FFFB
0003
0002
FFFF
0001
0004
FFFA
0009
FFF9
0006
0004
000C
0004
FFFE
0004
000A
0002
000C
FFFA
0002
0001
FFF9
FFF9
FFFE
0004
FFFD
0008
0003
FFFF
FFF8
0006
FFFE
FFF9
0006
FFFC
FFFD
0002
000A
FFF9
0001
0004
FFFC
0001
FFFE
0005
FFFD
FFFC
FFF4
0008
FFF4
0005
0001
000B
FFF9
FFF8
0002
FFFB
0010
0001
0004
000C
0003
000F
0000
0002
0000
FFF8
0000
0004
FFFB
FFFF
FFF9
FFE9
0002
0008
0006
0000
0005
0003
FFFE
FFFA
000B
FFFB
FFF0
FFFF
000E
000B
0001
FFFC
FFF0
0002
FFFA
0002
FFF8
0001
0003
FFFB
FFF4
FFFF
0002
FFF2
0000
0002
FFF2
FFF9
0007
FFF1
000A
FFF5
0008
000B
FFFD
FFF2
000D
0002
0012
0002
000A
0002
FFFB
FFF6
FFFE
FFFB
FFF8
FFF3
000F
0007
FFF2
FFFB
FFF7
FFF6
FFF0
FFF5
0007
FFFE
0007
FFFA
FFFD
FFEA
FFF0
0006
FFFF
FFFD
FFF2
0009
0007
FFFC
FFEB
FFF7
FFFA
FFFC
0002
0003
0005
0016
000B
FFEE
FFFC
0002
000A
FFF8
000B
000B
0007
000B
FFF3
0002
0003
FFF9
0003
0005
000A
FFF7
0000
0006
FFFA
FFF3
0001
FFF3
FFFC
000B
000B
0008
FFF3
FFF6
FFF3
FFFC
FFF8
FFF5
0006
FFEB
FFF0
0002
FFF2
FFF2
0000
FFF4
0006
FFEF
FFF3
FFF9
0008
0000
0015
0005
FFFE
FFFF
FFFF
0006
000C
0012
0004
FFFA
000A
FFF6
FFEF
0001
FFFE
FFFC
FFFC
FFF6
000C
FFF5
FFFD
0002
FFFA
FFFF
0007
FFEE
000F
FFFD
FFFC
0000
0000
FFF8
0001
FFF8
0003
FFFC
0003
FFFC
0002
FFFE
0007
FFF9
0004
000D
FFFC
FFFE
FFF9
FFF9
0000
FFFD
0001
0002
0001
FFF9
FFFF
FFFE
FFF9
FFF7
0001
FFFB
FFFB
FFFB
0001
FFFE
FFFB
0002
0002
FFFD
0007
0000
FFFC
0000
0003
0001
0005
0003
0006
FFFD
000B
0006
0001
FFFF
0002
0009
FFFE
0000
0009
0005
FFFC
FFFD
0003
0003
0008
0002
0006
FFF7
0007
0000
FFFD
000B
000C
FFF8
FFFF
0003
0003
FFFD
0010
FFF8
FFFA
FFF8
FFFD
0005
FFFB
0006
FFFA
0007
FFFF
0007
FFF5
FFEE
FFFB
FFF8
0009
FFFD
FFFB
0012
FFF5
FFFF
FFF3
000B
FFEA
FFF5
FFF3
0003
FFF8
0007
FFF1
000B
FFEF
FFF3
0011
0013
FFFF
000B
0018
0008
FFF5
0011
0010
FFFC
0009
0018
0008
0006
FFF4
0017
0014
0007
FFFF
0001
0005
0001
0000
0007
FFF4
FFFD
FFFD
0003
0004
0006
FFFE
0000
0003
0001
FFF6
FFFA
0003
0002
0000
0001
0001
FFF4
0003
FFFF
000B
FFFE
0007
0002
FFFF
FFFA
FFF9
0015
FFFE
0000
0001
FFEE
FFF8
0002
0001
FFFB
FFFD
FFFF
0003
0009
0009
0002
0008
FFF7
0003
FFFE
FFFA
FFFC
0002
0003
000F
0002
0005
FFF9
FFF6
0006
FFF0
FFF9
0002
FFFA
0007
FFED
000C
FFFB
0002
FFFD
FFF6
FFF2
0003
FFF5
0004
0005
FFF4
FFFE
FFFA
0005
FFFD
FFF6
FFF8
FFFE
FFFA
0006
0001
FFFF
0007
0005
0006
FFFF
FFFC
FFED
000C
FFFE
0009
FFF8
0011
FFF7
000B
0000
FFF7
0000
0003
FFF7
0003
0000
FFF3
0003
FFF7
0005
FFFA
FFFD
0004
0002
FFFB
FFFF
0000
FFFB
FFFA
0001
FFFF
FFFD
FFFA
FFFE
FFFF
0008
FFFE
FFF8
FFFD
0001
FFFF
0005
0004
FFF9
0008
FFF9
0005
0002
FFFC
FFFF
0008
FFFB
FFFB
0001
FFF8
000F
0005
000E
FFFD
FFFF
0005
FFFF
0004
FFFA
0009
FFF3
FFFD
0000
0003
0006
0000
FFF5
FFF7
0000
FFF8
0006
FFF1
FFFF
0002
FFFF
FFFC
FFFE
0002
0007
0001
0000
FFFF
0003
FFF5
FFF8
0009
FFF6
FFFC
0000
0000
0006
0003
FFF9
FFFD
FFFF
FFF5
FFF7
0005
FFEF
FFFE
0008
FFFE
FFFC
FFFC
0004
0003
FFF3
0005
0006
0005
000B
FFFD
FFF0
0000
0008
0004
0000
0001
0001
0002
0005
FFEE
0004
0003
000F
FFFC
FFEC
FFF9
FFF5
FFFB
FFFC
FFF6
0001
FFFD
0003
FFFC
0007
FFFE
FFFA
0008
000D
FFF6
000E
0006
0005
FFF9
0006
0003
FFFA
0007
0005
000B
FFFD
0000
FFFF
0010
FFFE
FFFD
0002
FFFE
0000
FFF9
FFFF
FFF4
0002
0003
FFF8
FFFB
0006
0005
FFF8
FFFB
FFFA
FFFA
FFFF
0002
FFFA
000F
FFFF
FFFF
FFF8
FFFC
0005
FFFC
FFFD
0009
FFFB
000D
0001
0009
FFFE
000D
FFF9
000F
0003
0000
FFFE
0007
0004
FFFE
FFF6
FFFD
FFF7
0000
FFFC
0003
0004
FFF6
FFF6
FFFB
0000
0001
FFFF
0001
FFFC
FFF9
FFF7
0001
FFF8
FFFE
FFFB
FFFC
FFF6
FFF0
FFFB
FFF8
FFF2
FFFA
FFF9
FFFF
0002
FFFF
FFFF
FFF6
0000
0006
0006
0001
FFFF
0005
0004
FFF6
0001
0009
FFFB
FFFE
FFFE
FFFD
0008
FFF8
FFFC
FFFC
FFFF
0004
FFF8
FFF9
FFFB
FFFC
0009
0002
0003
FFFA
000C
0000
0003
FFF9
0003
FFFF
FFFC
000B
0002
FFFD
FFF8
0001
0001
FFF7
0002
0007
0002
0001
FFFA
FFFC
0008
0001
FFFE
0003
0001
FFFE
FFFC
FFF8
000E
FFF6
0007
000E
FFFF
FFFA
0003
FFFD
FFF6
0000
0002
FFF8
FFFA
FFFF
000C
0003
FFF9
0001
0008
FFEE
FFFE
FFFE
0001
FFFB
0000
FFF8
0009
FFFD
FFEA
0000
FFFE
FFFC
000A
0002
000B
FFFD
000B
0006
FFF9
FFF7
FFF2
0002
0007
FFF0
0003
FFFB
FFF9
FFF9
0003
FFF6
FFFC
FFF4
0006
0003
FFFF
FFFE
FFFF
0002
FFFF
0002
000C
FFF8
0007
FFFF
000B
0005
FFFE
FFFC
0006
FFF7
0004
FFFE
0002
FFFA
FFFF
000A
0003
000A
0004
FFF9
0006
0002
FFFB
FFF8
0002
000D
000B
FFFF
0008
0001
FFFB
0005
FFF7
FFFB
FFFD
FFFC
0003
0008
0006
0006
0001
0002
0006
FFFB
FFFD
0004
0003
000D
0004
0005
FFFA
0007
FFF7
0005
0002
000C
000A
0005
0002
0002
0006
0000
0000
FFFC
0005
FFF3
FFF7
0003
FFF6
0000
FFF6
0001
0007
FFF3
FFFE
FFFE
FFFC
0000
FFFE
FFF1
FFFC
FFFA
FFFF
FFFC
0002
FFFD
0002
000C
FFF4
FFFC
FFF9
FFF9
0000
FFFB
FFF6
0009
FFF4
0012
FFFE
000B
0006
0006
FFFF
0007
000B
0008
FFF6
0000
000A
FFF1
FFFD
0007
0000
FFF8
FFED
0007
FFFC
FFF4
0008
FFF6
FFF6
FFFF
0001
000E
FFFC
FFF7
0008
0007
FFF6
FFFE
FFF2
FFFA
0007
0001
FFFE
0004
FFF9
0009
FFFB
FFFF
FFFB
FFFC
0002
0002
FFFB
0005
0004
0007
0007
FFFB
0005
0017
FFFE
FFF4
0003
0000
FFFE
000A
0001
FFFA
0009
FFFF
0003
0002
FFFA
0003
0005
0000
FFF6
FFFF
0004
0006
FFFF
FFFE
FFF9
0009
FFFF
0001
0004
FFFE
0004
FFFB
FFFC
FFFA
FFF7
0002
0002
FFFA
FFFF
FFFE
FFFD
FFFD
0001
FFFF
FFFE
FFFF
0003
FFF7
0008
0006
FFFF
0000
0001
0008
FFF4
0005
0001
0007
FFFE
0003
0002
FFFE
0009
FFFF
0002
FFFC
0006
0002
FFFC
FFFC
0002
000C
0005
0000
FFF9
0006
FFF7
0000
0005
0008
FFFE
0007
0000
FFFC
000A
0002
0007
FFFF
0001
FFF8
0001
FFFF
0000
0002
FFFF
FFFE
FFF7
000A
FFFC
FFF7
0008
FFFF
FFFD
FFFD
FFFE
FFFB
FFFD
0005
0007
FFF7
0000
0007
FFFF
0002
FFFB
FFFF
FFF6
0004
FFF5
FFFD
FFFB
FFF7
FFFF
FFF6
000A
0004
0005
0003
0003
FFFE
FFFF
FFFA
FFFB
FFF9
FFFE
0006
FFFE
0001
0000
000A
FFF4
FFFA
0003
0004
FFF7
0009
FFF8
FFF9
FFFC
0009
0001
0007
FFF2
000A
FFFB
0003
FFFE
FFF6
FFFB
FFFC
FFFB
0000
FFFB
0002
0004
0006
FFFE
0005
FFF2
FFFC
FFED
FFFE
FFF4
0010
FFFD
FFF7
FFFE
FFEB
FFEE
FFFE
FFF7
000F
0004
0004
0006
0014
0007
000B
FFEB
0000
000A
FFFE
0000
0009
FFFD
0017
0008
000A
FFFE
FFFD
0001
0003
FFFE
0005
0000
FFFB
000F
FFFC
FFF9
000D
FFFD
FFF9
000D
FFF8
FFF8
FFFA
FFF9
FFF5
FFFD
FFF4
FFF3
001A
0001
FFF6
FFF0
FFEF
FFF9
FFEC
FFF3
000C
0002
0001
000C
FFFD
0002
FFFB
FFF9
FFFC
FFFB
FFF4
FFFF
FFFA
0009
FFFA
000A
0002
0009
0001
FFFD
0005
FFF9
0003
0001
0005
FFFC
0004
FFF6
0000
0002
0004
0004
FFF6
FFFB
0004
0005
0003
FFFD
0001
000B
0007
0002
0000
000D
FFF9
0009
FFF7
0005
0004
FFFA
0004
0002
FFFE
0002
0008
FFFF
0003
0004
FFFF
FFF5
FFF5
FFFA
0009
FFFD
FFFB
FFFC
0007
0003
FFFC
0006
FFFB
FFFB
0003
FFED
0007
FFFF
0009
FFFD
0001
FFFF
0004
FFFA
FFFD
FFFA
FFF2
FFFE
0005
FFEE
0009
0000
FFFC
FFF5
FFF7
FFF5
0005
0003
FFFE
FFFE
FFF5
FFF7
0003
0003
FFF9
0007
FFFC
FFF7
FFFF
FFF6
FFF9
FFFB
0000
FFFC
FFFC
0001
FFFF
FFFE
0005
FFFD
0000
FFF9
0005
FFFE
FFF4
FFF1
000D
0005
0005
0005
FFFC
0001
0001
0007
FFFF
0008
FFFC
0000
FFF2
0003
FFF8
000B
FFFD
FFFF
0010
0004
0003
FFFB
FFFA
FFFD
000F
FFFD
FFFF
000D
FFFE
0006
FFF8
0007
0007
FFFC
0003
0005
0007
FFF3
0001
FFF4
0002
FFFE
000E
0005
000A
0009
000F
FFF5
0004
FFF4
FFFB
FFF8
000A
0008
FFF6
FFFA
FFFB
0001
FFFB
FFF7
0000
FFF5
FFFD
FFF4
FFF5
FFFD
0003
FFFF
0000
FFF7
FFF4
FFFF
0003
0012
FFFE
0003
0000
0001
FFFC
000A
0007
000B
FFFE
0007
0002
FFFE
FFFB
FFFC
0004
0008
0000
FFFF
0006
0008
0007
0002
FFFB
0001
0006
FFFC
0008
FFFE
0008
FFFD
0008
000E
0001
FFF6
0009
FFF3
000A
FFF6
FFFD
FFF5
0005
FFFB
0004
0004
FFFF
FFF7
0009
0002
FFFB
FFFE
0008
FFF3
FFFE
FFFF
0003
FFFD
FFF5
FFFA
FFFE
FFFA
FFF7
0001
FFFF
FFEF
FFF6
FFF5
FFFC
FFF2
0004
0004
FFFD
0006
0002
FFFD
FFF4
FFFF
FFF7
0004
FFFB
0007
FFFD
FFF8
FFF8
0006
0000
0004
FFFE
FFFF
0007
0004
0001
FFFE
FFFC
FFF9
FFF5
FFF0
FFF5
0006
0000
FFE8
FFFF
000A
FFFB
FFFD
0006
FFF6
0000
FFFA
FFFD
0003
0002
000A
0003
FFFD
FFFC
0007
FFFC
0002
0009
0003
FFFC
FFFE
FFF6
FFFF
000E
FFFF
FFFA
FFF7
FFFB
0003
0005
FFFF
FFFB
0009
FFFF
FFFE
FFFA
0004
000A
FFFD
0007
0000
000A
0000
FFF7
000A
000A
000C
FFFD
0002
FFFD
FFF9
0003
FFFB
FFF8
FFFF
FFFC
0007
0001
0003
000B
FFF6
0002
0007
0003
0007
0006
0006
FFF6
0003
FFF6
000D
0008
FFFC
0004
0004
FFFB
0005
FFFC
000A
FFF8
FFFC
0006
0000
0000
000F
0004
0000
000C
FFFE
0000
0000
FFFA
0003
0005
FFFC
FFFC
FFFF
0002
FFFF
FFF1
FFFF
0001
FFF5
0005
0002
0001
0002
0000
FFF1
FFF8
FFF7
FFF6
FFED
FFF9
FFF7
0009
0007
FFF7
FFF3
FFFB
0009
FFF8
FFEE
FFF5
FFFB
FFFD
FFFE
FFF8
0005
FFFF
0002
FFF5
FFFE
FFFE
FFEC
000A
0009
FFF0
0003
0003
FFFA
0006
0007
0007
FFFF
FFFA
0006
0002
FFFC
FFED
0006
000E
0004
0002
0004
FFFF
FFFE
FFFE
0005
FFF8
0003
FFFE
0001
0001
0005
0005
FFFC
FFFF
0004
0004
FFF7
FFF7
FFFB
FFFA
FFFB
0005
0004
FFFE
0001
FFFD
000B
FFFA
FFFF
0005
0007
FFFC
FFFA
0006
0001
0000
0008
0002
0007
FFFB
000C
FFFE
FFFF
FFFE
0009
0004
FFFF
0007
FFF8
FFFF
FFED
FFEF
000E
FFFC
0006
0009
0004
FFED
0007
FFF8
0005
0007
FFFF
0004
FFFF
FFFB
FFF3
0009
FFFB
FFF9
0009
FFF7
0000
FFFB
FFEB
0001
0006
0000
0005
0002
FFFD
0002
FFFE
FFF9
0003
0007
0009
0007
0002
0006
FFF9
FFFC
FFFA
FFFE
0002
0002
FFFB
0002
0007
FFFA
0004
0008
FFF3
0007
FFFA
0002
0003
0004
0005
0002
FFF4
0011
FFF3
FFFA
0005
0001
FFF6
FFF1
0002
000D
FFFE
FFFB
FFF9
0003
FFFC
FFF6
0007
0004
0005
0002
FFFD
FFF9
FFFD
FFFD
0005
FFFE
000B
FFEF
FFF0
0002
FFFF
FFFE
0008
FFF4
000A
FFFD
000B
0000
FFFB
FFFD
0001
FFFE
FFFD
FFFE
FFFC
0008
FFFF
FFFC
000D
FFFF
FFF1
FFFF
000B
FFFC
0008
0000
0007
000A
000F
FFFB
0003
FFFD
FFF8
0008
FFFD
FFF6
FFF4
FFFE
FFFD
000C
0009
FFF5
0005
FFF2
FFFE
FFF8
0007
FFFE
FFFE
000D
FFFD
FFFC
FFFF
FFF8
0013
0002
FFFD
0005
0007
0000
FFFE
FFFC
0008
0002
FFF9
0001
0001
0002
0003
0007
FFFE
FFF9
000A
0001
FFF4
FFFF
0003
FFFD
FFFE
FFFF
0001
0002
FFFF
0001
FFFA
FFF9
0000
0004
0002
FFFF
FFFF
0004
FFFE
0003
0007
FFF8
0003
0003
FFFB
000B
0001
FFF6
FFF6
0000
0005
FFFB
0006
0001
0002
FFFF
FFFF
FFF8
FFFF
FFFC
FFF4
0005
FFFA
FFFA
FFF3
FFFE
0008
000A
FFF9
0001
FFFE
FFFF
FFFC
FFFA
0002
0003
FFFE
FFFC
FFF7
FFF5
FFF5
0000
FFF7
FFF4
FFFC
000E
FFFE
FFF9
FFFB
FFFC
0007
0001
FFFA
FFFD
FFF6
FFFF
FFFF
0005
FFFC
FFEF
000E
0000
0006
0009
000A
FFF8
FFFF
FFF9
0002
FFF5
0009
FFFE
FFF7
0006
FFFF
0006
0006
FFF6
0004
0002
0005
FFF8
0002
0008
0009
0005
FFF8
0009
0002
0001
FFF2
FFFB
FFFF
FFFE
FFFF
0001
FFF5
FFFF
0001
FFFA
FFFE
000E
FFF6
0007
0000
FFFD
FFFB
000A
FFFC
FFFC
FFFC
FFFD
0003
0000
FFFE
0007
FFFF
FFF9
0005
FFFA
FFF8
0002
FFF3
FFF6
FFF7
0000
FFF1
0002
FFFB
0001
0006
0000
0006
FFFE
FFFC
0006
FFF9
FFF4
0001
0003
0005
0003
0005
0005
FFFC
FFF9
FFF8
FFF4
0007
FFFB
0008
FFFE
0004
FFFE
0002
FFF5
0006
0004
0001
FFFD
000C
0000
FFF6
0003
0001
FFF7
0005
FFFD
FFFE
FFFD
0007
FFFF
0000
FFF6
0007
FFFC
FFFE
FFFD
FFFE
0008
FFFB
FFFD
FFF7
FFFD
0006
FFFA
FFFC
FFFD
0007
0001
000B
FFFC
FFFE
FFF9
FFF6
0009
0001
FFFC
0002
0003
0009
FFFC
0002
FFFB
FFFB
0004
FFFE
FFFC
0008
FFFE
FFFF
0003
FFFF
FFFD
FFFA
0007
0003
0001
000B
0001
FFFB
FFFF
FFF8
0005
FFF9
0005
0001
FFFB
0002
000A
0002
0001
0006
0002
0000
0004
FFFF
0003
FFFD
FFFE
0001
0005
FFFE
FFF9
0002
0007
FFF3
FFF5
FFF8
FFF5
FFFD
0001
0004
FFFA
0012
FFFE
0000
FFFC
FFFD
0000
FFFB
FFF9
0000
0001
FFF9
FFF3
0005
0004
FFF9
000B
0006
0000
0005
FFF2
000B
000E
FFF4
0001
FFF0
FFF9
0006
0006
FFF3
FFF9
FFFC
0001
FFFB
0009
0015
0006
FFF2
FFF9
FFF4
000E
FFFD
FFF9
0001
000D
0012
FFF6
FFFA
0007
FFF1
FFEF
FFFF
FFFA
0005
FFFB
FFFA
0001
FFFF
000C
0003
FFFD
0005
FFFF
FFFD
000B
FFF5
0007
FFF9
0008
0004
0004
FFFF
0001
000E
0009
0005
0002
0000
0002
FFFA
0005
FFFA
0006
0003
000D
FFFD
0005
0006
FFF7
FFF0
FFFE
FFFF
FFFC
0006
FFFC
0005
0001
0004
FFF7
0004
0008
000D
FFF4
0000
0002
0003
FFFE
0000
0002
0002
0003
FFF1
FFFB
0007
0005
000A
FFF6
0002
000C
FFFF
FFFE
0006
FFFC
0010
FFFD
0000
FFFD
0010
0002
000A
FFFD
000B
FFFE
FFF6
FFFA
0004
FFF1
000D
0000
FFFD
0004
0002
FFFE
FFF5
0003
0004
0008
FFFC
FFFD
FFFC
000A
0001
FFFF
000D
FFFD
0003
FFFE
FFF8
0006
0000
0005
FFF5
0001
FFFE
FFFF
FFFD
FFF8
0001
FFF2
FFFD
FFFF
FFFF
FFF9
0003
FFF8
FFF8
FFF6
FFFE
FFFD
0002
0005
FFFB
FFFC
FFFB
000E
0005
000F
0002
FFF7
0006
FFF9
0004
000F
0003
0002
FFFF
FFFA
0007
FFF6
FFF8
0004
FFF5
FFF6
FFFF
0000
0006
FFF6
FFF5
FFFE
0004
FFF9
FFFD
0008
FFFE
0009
0010
FFF4
FFFC
FFF0
000A
FFFA
0009
FFF7
000C
FFFE
0008
0006
FFFF
FFF6
FFFC
0009
0009
0003
0007
0009
FFFE
FFFE
001B
0005
FFFC
000A
0005
0005
0010
FFEC
0003
000F
FFFF
0005
0005
FFFE
FFF4
FFF8
FFF2
0004
FFF4
000C
0000
0000
0004
000C
FFF8
FFFA
FFF7
FFFF
FFFF
FFFF
FFF3
FFF2
FFF8
FFFE
0005
FFE7
FFFD
0001
FFEE
0009
FFF7
FFFF
0000
FFFD
FFF9
FFFA
0009
FFF3
0003
FFF9
0009
0002
0004
FFF6
000D
0000
FFFD
FFFF
0004
0000
FFFE
FFFF
FFFA
0007
000A
000A
FFF7
FFF9
FFFD
0003
FFFE
FFF9
0002
0004
FFFC
000D
000E
0003
FFF7
FFFD
FFF7
0003
FFF9
0009
FFF7
0007
FFF7
0008
0003
FFFD
FFFD
0000
0004
FFFA
0000
0004
FFFA
FFFF
FFF9
FFFE
FFFB
FFFF
FFF4
000B
FFFB
FFF2
FFFF
0000
0000
FFFF
FFF8
000B
0000
000A
FFFE
FFFA
FFFB
FFF3
0000
0000
FFF7
FFFB
FFF9
FFFB
0000
0006
FFF6
0001
FFFA
FFFC
FFF7
FFFE
0002
FFFD
0001
0002
FFFF
FFF5
FFFE
FFF6
000C
FFF4
0001
FFFE
FFFE
0002
FFF6
0006
FFFA
FFF3
FFFE
0003
FFF9
0001
0001
FFF3
0003
000B
0002
0004
FFFF
FFFD
FFF7
0002
FFFE
0008
0001
FFFD
FFF8
FFF8
FFFE
0004
0005
0000
FFF7
FFF4
0004
0006
0005
FFFF
FFF5
0005
FFFF
FFF5
0004
FFFB
0006
000B
0005
FFFA
FFFA
FFFB
0004
0000
FFFF
0000
0000
0000
0005
FFFC
FFFD
FFFF
0007
FFFE
FFFA
0009
000A
0004
0002
FFFD
000A
FFFD
000A
0003
FFFF
0002
FFF8
0006
0001
0006
0008
FFFD
0002
FFFE
0010
0002
0003
000F
FFFF
000B
0001
0004
FFFC
0013
0002
0005
FFFC
0003
0007
FFF9
0009
FFFD
0005
0015
FFFF
FFEE
FFFE
FFF8
FFF7
0003
0001
FFF2
000C
FFFB
FFFB
FFEC
0001
0003
FFEF
FFEF
FFF9
FFF1
0000
0006
FFF2
0009
0002
FFF4
FFF3
FFF8
FFFF
FFF6
0005
0003
0002
0000
0003
0008
0000
0004
FFFC
0000
0002
FFEC
FFF7
0000
0007
000A
FFFF
FFFA
0007
FFFC
FFFF
0007
FFFF
FFFF
FFFD
0001
FFF4
0002
0001
FFFB
000B
FFF5
FFF9
FFEF
FFFD
FFF9
FFF4
FFFD
0005
0001
0001
FFFB
0008
FFF2
0009
000A
0006
FFF9
0004
0009
FFFF
FFF4
FFF8
0006
000C
FFF9
0005
FFF9
FFFD
FFFF
000E
FFF8
FFFD
FFF9
FFF6
FFFB
0001
FFF6
0001
FFFF
FFFC
0002
FFFC
FFFC
0001
FFF8
FFF6
0003
FFFF
FFEE
000C
FFF6
FFFA
0000
0002
0000
FFFE
FFFE
0008
FFF7
FFF8
0008
FFFE
FFFF
0000
000A
FFFE
FFF9
FFFC
FFF8
FFFB
0000
FFFE
FFFC
0000
FFF8
FFF3
FFFC
FFF5
FFF7
FFF2
FFF9
FFFD
FFF2
0001
FFFD
FFEF
FFFD
FFFE
000B
FFF4
FFF4
FFF9
000A
FFEF
0006
FFFA
FFFB
000B
FFFF
FFFD
000D
FFFD
FFFE
0002
0000
000F
0004
000A
000A
FFF9
FFFD
FFF5
FFF7
0007
FFFC
0003
0011
0002
0002
0008
0002
0005
FFFD
0010
FFFD
0000
FFF3
0005
FFF3
0004
FFF1
0004
0005
000F
FFFD
0004
FFF9
FFF8
FFFE
FFF8
FFEE
FFEB
FFFF
0003
0000
0001
0002
0009
FFFF
0003
FFF7
0001
0001
FFFF
0008
0003
FFF5
FFF9
0003
0010
0001
FFF9
0005
0008
0001
0005
0000
0002
FFFC
FFF0
0001
FFFF
FFFB
0009
0007
0000
000B
FFFD
0006
0006
FFFD
0000
0001
FFFE
FFF8
0000
0009
FFFA
0007
0002
0005
000A
0001
FFFC
FFFB
FFFD
0006
0006
0000
000F
FFFE
0001
0003
FFFF
FFFF
0008
0002
0001
FFFF
FFFE
0000
0000
FFF8
0003
000D
0002
0002
FFFF
0000
0001
0004
0003
0008
000B
0002
000A
0002
FFFA
FFFC
0004
FFF9
0006
FFFC
0004
FFFE
0002
000E
0009
0001
FFF8
FFF8
FFFE
FFFD
FFFE
0002
0007
000B
FFFE
0002
0000
0001
0003
FFFA
FFEA
0000
FFF7
FFF1
0000
FFF8
FFFD
FFFB
0005
FFFB
0001
FFEE
0000
0007
0002
FFFF
0002
0000
0003
000B
FFFE
0002
0001
0003
FFFC
0003
0002
0001
0002
FFFC
0003
FFFE
FFFC
FFF6
FFFD
0007
FFFC
FFF8
0008
0009
0007
FFF9
000A
0008
FFF5
0009
FFFB
FFF2
000C
0004
FFFA
FFF2
0000
FFFD
FFF8
FFF5
0000
000A
FFFD
FFEF
FFFD
000B
0000
0006
000B
0008
0006
0003
FFFD
0007
FFFC
0003
FFF9
0005
0004
FFFC
FFFD
FFFA
FFFD
FFFF
0001
FFFC
0013
000B
FFF9
FFF8
0000
000D
FFFB
FFFC
0001
FFFD
0000
FFEE
FFFF
FFF7
0000
0003
0000
FFFD
0005
FFFB
0001
FFF8
0006
FFFC
0007
FFFD
0007
FFFB
0001
0009
FFFF
0001
0009
FFFF
FFFE
0000
FFFF
000A
0006
FFFE
0001
0006
FFFA
FFFC
0005
FFFD
FFEF
FFFB
FFFE
FFFA
FFFE
FFFD
000A
0005
000C
FFF9
FFFC
FFF6
0001
0004
0008
FFF2
FFF8
0003
0002
0000
0009
0007
FFFE
FFFF
FFFF
0005
0002
FFF8
FFFB
FFFC
0003
0005
0006
FFFF
0003
FFFA
FFFA
FFFB
0009
000C
0006
0004
000A
FFF6
FFF1
0001
FFFB
FFF8
FFFA
0001
0005
FFFD
0001
FFFC
FFFC
FFFE
0002
FFF6
FFFB
0006
0005
0000
FFFC
000B
FFFE
0000
000C
0005
0008
0005
FFF2
FFFF
FFF7
0000
FFFD
FFFA
0006
0001
FFFE
0006
0002
FFFE
FFFA
FFF2
FFFB
0001
FFF6
0002
FFFD
FFFC
000F
000A
FFFD
FFFF
FFFE
FFFE
FFF4
FFFB
FFFD
FFFE
FFFC
0004
0005
FFF8
FFFD
0003
FFFB
FFFE
0001
0004
FFFF
0003
FFFB
FFFC
0004
FFFC
0006
0006
000A
0002
0006
FFFE
FFF5
FFFF
0005
0005
FFFD
FFF7
FFF3
FFF5
0002
0007
0004
000B
0008
FFFC
FFF5
FFF0
FFF9
FFF6
0003
FFFB
0008
FFFF
0009
000E
FFF7
FFF5
0003
FFFD
FFF1
0001
FFFF
000B
000B
FFFA
0008
FFFB
000A
FFFD
FFED
FFFF
0006
FFFD
FFF5
FFF2
0001
FFF4
0006
0014
000B
0002
0008
0002
0002
0008
FFF8
0009
000E
0010
0002
0008
0003
FFFF
FFF2
FFFA
FFFE
FFF6
0008
FFFB
0008
0002
FFF8
FFFB
000A
FFF2
000D
FFFC
0005
FFF9
0007
0002
0007
FFFE
000A
FFF9
0005
0002
FFFC
0000
000A
0007
FFF8
FFFE
FFFD
0004
0000
FFFF
0006
0001
FFFB
FFFA
000C
0006
FFFA
FFF9
0011
FFF5
FFFB
FFF4
0003
0007
0002
0002
0012
FFFD
FFF3
FFFC
0001
0002
000A
0004
FFFF
FFFC
0002
FFFE
FFF7
0007
FFFB
FFFC
FFF8
FFFC
FFFD
FFFC
0000
0004
0000
0000
FFFD
0000
FFFE
0003
FFFB
0003
0005
0007
FFFE
0006
FFFC
FFF3
FFFF
FFEF
FFFD
FFFE
FFFC
0006
0001
FFFD
FFFB
FFF4
FFF7
FFFB
FFFC
FFFD
FFFC
0001
FFFD
0000
FFFC
0006
000D
FFFF
FFFE
FFF8
0005
0008
0009
FFFE
0008
FFF9
FFFD
FFFD
FFF2
FFF5
FFF6
0000
0006
0006
0008
FFFE
FFEA
FFF9
FFFD
FFFB
FFFA
000B
FFFE
0005
0003
0004
0006
0001
0005
0000
0000
0001
FFF7
0009
FFFB
000E
FFFF
0011
FFF3
FFFC
FFF9
0002
0008
FFF6
FFFD
0001
FFFD
000A
0009
FFF9
FFFB
FFF6
FFF6
FFFB
FFFF
FFFA
FFFB
FFFF
000D
FFF7
0000
FFF0
FFF4
FFF9
FFF9
0006
FFFF
FFF6
FFF5
FFFC
FFF7
0003
FFFE
FFFA
0000
000A
FFF7
FFEF
FFFB
000A
FFF4
FFFD
0004
FFFC
0006
0002
0006
FFFF
000B
0005
0000
FFFA
0005
FFF4
FFFE
FFFB
000C
0003
0005
0001
000A
FFF7
0004
0003
0005
FFF7
FFFA
FFFF
FFFB
0002
0007
0005
FFFE
FFF5
FFFC
0007
FFF9
FFFC
FFFF
0002
FFFC
0006
000A
FFFA
FFFC
FFFC
FFF8
FFFA
0004
0000
FFFD
FFFB
0002
0004
000B
0001
0000
FFF9
0000
FFFC
FFF6
0003
0002
0003
0005
000B
FFFC
0002
FFF6
0005
FFFB
FFF4
0007
FFFC
FFFD
FFFF
000A
FFF2
0001
0007
FFFA
0009
FFFE
FFF8
0001
FFFC
0006
0006
FFFB
FFEA
0002
0003
0004
0006
0003
0005
FFF7
000C
FFFB
FFFA
0003
FFFD
FFFA
0008
0002
0005
0003
0000
0004
FFFC
0004
0003
FFF9
000D
FFFF
FFFC
0001
FFFE
FFFA
FFF8
FFF9
FFF9
0009
FFF8
0003
FFFD
FFFB
0003
0001
0003
FFFA
FFF4
0006
0006
FFFB
0004
0000
FFFC
FFEF
FFF8
FFF8
FFF9
0005
0001
FFFC
0001
FFFC
000A
FFF2
0002
FFFE
FFFC
0002
0014
000D
FFFD
0004
0005
000C
0005
0007
000A
0000
0003
0004
0006
FFFE
FFFC
0005
0001
FFFD
0003
FFFE
0009
0002
0000
000A
0001
0009
FFFC
FFF7
FFFB
0004
0002
0001
FFF9
0006
FFFC
FFF9
FFF3
000D
FFF8
FFFA
FFF2
0003
FFF5
FFFE
0002
0000
000A
0007
0003
FFF0
000D
000B
FFF2
0007
0002
0004
000F
0001
FFF7
000A
FFEE
0006
0007
FFFD
FFF3
0007
0005
000C
FFF6
0005
FFFB
FFFD
0007
FFF5
FFF5
FFFF
FFFF
FFF2
FFFB
0002
FFF8
FFF5
FFF7
0007
FFF5
0006
FFFA
FFFE
FFF7
0005
0003
0005
FFF8
FFF9
0008
0003
FFF0
FFF9
0002
0002
0001
000C
0000
FFFB
000B
FFF8
0002
FFF9
FFFD
FFFE
0002
0001
FFF9
FFF7
FFF5
FFF6
FFF0
FFF6
0004
FFFE
0002
FFF6
FFFA
0004
FFFD
FFF8
0007
000D
0005
0002
0001
FFFA
FFFF
0005
0004
0000
FFFA
0000
FFFE
000E
FFF9
0005
000D
FFF3
0003
0004
FFF3
FFF9
FFF7
FFFE
FFF7
FFFF
0005
0004
FFF6
0003
FFFA
FFFA
FFF8
0003
FFF6
FFFA
FFFE
0003
FFEB
0000
0004
FFEE
FFED
FFFD
0000
FFF8
FFFD
0004
FFFF
FFFD
000B
FFFE
0004
FFFA
000A
FFFE
FFFF
FFFE
0003
FFF8
0000
FFF3
0006
000F
0002
FFF9
0001
0005
FFFB
FFFE
FFFA
0005
0001
0003
FFF6
0000
0000
FFF2
0001
FFFD
FFF9
FFFD
000A
FFFB
0002
0002
FFFA
FFFC
FFFC
0008
0007
0001
0001
0006
FFFA
FFFC
FFFF
0000
0004
FFF6
FFFB
FFF7
0004
FFFF
FFFE
0002
FFFD
FFFE
FFFE
0004
0004
FFFF
0009
000A
0000
000E
FFFB
0004
0002
0006
0002
000F
FFFB
0018
FFF2
FFF3
FFF7
0005
0001
0002
0002
FFF7
0000
0009
0000
0000
FFFC
FFFC
FFFF
0004
0003
0002
FFFA
FFF9
FFFE
0004
FFFC
FFF1
0008
0007
FFFD
0007
FFF9
FFFF
0003
000D
0003
0004
FFFA
FFF8
FFFF
FFFA
0005
FFF4
FFF7
0007
0009
0007
FFFB
0004
FFF9
0006
FFF3
0004
0004
FFFD
FFFF
0002
FFFD
0002
FFFE
0004
FFFA
FFFF
FFF9
FFFF
FFF9
FFFD
000B
000D
FFFC
0000
0007
FFFE
000A
0000
0001
0009
FFFE
FFFF
0003
0000
0007
0005
0005
000F
FFFE
0007
0001
FFFD
FFFD
FFFF
FFFB
FFFD
FFFB
FFFB
0002
0002
FFFC
0001
0002
0003
FFFD
FFFA
0004
FFFF
000D
0002
0004
FFFF
FFF8
0003
0003
FFFD
FFFC
0001
FFFD
0000
FFFA
0001
0002
0006
0006
FFFC
0007
FFF5
0001
0004
FFFF
0002
000E
FFFA
0007
0005
FFFC
000F
0002
FFFA
0010
FFF4
FFF7
FFF8
0003
0002
0002
000A
0005
FFFA
0002
FFF4
0000
FFFD
FFF9
0004
0000
0000
FFF7
0006
FFF9
0002
FFF7
0003
0001
FFFC
FFF2
0006
FFFC
FFEF
FFFF
FFFB
FFF7
0005
FFFC
FFFA
FFFC
0002
FFFB
FFF2
FFFE
0003
FFFB
FFF3
FFFE
FFF5
0006
FFFF
FFF5
0004
FFFA
FFFD
FFFE
FFF7
0008
FFFC
FFFE
0007
000A
FFFA
FFF6
0007
0003
0006
FFFD
FFF4
0004
FFFB
0006
0005
0002
0003
0001
FFFD
FFF8
FFFE
FFF2
0004
FFFD
0011
0002
FFF7
FFFE
FFFF
0001
FFFF
FFFD
0005
FFFB
FFF8
0001
FFFD
FFF6
0007
000C
0000
0004
0008
0002
0003
0006
0000
0006
FFFD
0009
FFFB
FFFF
FFFE
0004
0003
0004
0004
0000
FFF9
FFFC
FFF8
FFF7
FFFE
FFF4
0008
0004
FFFB
FFFB
FFFD
FFF3
FFF7
0000
FFFC
FFF9
0000
0009
0002
FFF7
0008
0008
FFF9
FFFC
FFF7
0006
FFFD
FFFE
FFF9
0003
FFFA
FFFD
FFF9
000E
FFFE
FFFE
000B
FFFF
FFFB
0009
000E
FFFC
0004
FFFF
FFF7
0000
FFFA
FFF7
0004
0002
0011
FFFE
FFF6
FFFB
FFF2
FFFC
FFFF
FFF6
FFFE
FFFD
FFFE
FFFF
FFFE
FFFE
000C
FFF3
0000
FFFF
FFFA
FFFA
FFF9
0000
0002
0005
0006
0003
0006
FFFE
FFF9
FFFE
0000
FFFC
0008
FFFE
FFFD
FFF9
FFFE
0003
FFFE
0004
FFFF
0001
FFF6
0001
0000
FFF5
FFFE
FFF5
0001
FFFC
0000
FFF7
0006
0007
FFFE
FFED
0005
0003
FFF5
0005
000C
FFF9
0001
0007
0000
FFEF
FFFB
0005
0005
FFF9
0003
0002
FFFD
FFFB
FFFE
0003
0006
0001
FFEE
0000
000C
FFFE
FFF7
FFFF
0006
FFFE
0002
0006
0018
0003
FFF8
0001
FFFD
FFF6
FFFF
0002
0007
000B
0004
FFFC
FFF8
FFFC
FFED
FFF5
FFF6
FFFE
FFFD
000A
FFFA
FFF7
0002
0001
FFFA
000C
FFF7
0004
FFFA
FFF3
FFFF
0005
FFF2
0003
000C
FFFB
000B
0018
0010
0007
FFFF
0000
0003
0005
0007
0016
0005
000C
0008
FFF8
0006
FFF1
0002
0004
0006
0006
000B
0003
0004
0001
0005
FFFB
000B
FFF6
0005
0006
000B
FFFD
0009
FFFC
FFF2
0004
FFFB
0001
FFFE
0001
0004
FFFE
0009
0009
0007
0003
0002
FFF6
000A
0002
0008
0003
0000
FFF4
0005
FFFF
0003
FFFA
0007
0002
FFFF
FFF7
0002
FFFF
FFFA
0004
FFFD
0003
0005
FFFE
0003
0002
0006
FFFF
FFFD
000A
0001
0006
0002
FFFF
FFFD
FFFF
FFF9
FFFD
FFF8
FFF9
0004
FFFE
FFF3
0007
0003
0003
0000
FFFD
0000
0000
0005
000B
0002
0009
0006
0005
0011
0002
0000
0007
FFFA
0003
FFF8
FFFC
FFFD
FFF4
0008
FFFD
FFF3
0003
0008
0004
0002
FFFA
0000
000F
000A
000A
0008
0004
FFED
0001
FFFA
FFEF
0006
FFFB
0000
0004
000A
0001
FFF1
FFF0
0005
0002
0008
FFF4
0004
0017
0002
FFF1
0000
FFF6
FFF8
FFF8
0007
FFFD
0005
0001
FFF7
0003
0002
FFFD
0002
0007
0006
0011
FFF6
0002
FFF8
FFF4
0001
0001
0001
FFFD
0008
0000
000B
FFF4
0000
FFFB
FFF2
0004
FFED
0010
FFF3
FFFC
0005
0006
FFF3
0003
FFFB
0002
0002
0000
0008
FFF0
FFFB
0003
FFF8
FFEB
FFFC
0004
0001
FFFB
FFF9
0002
FFFD
FFF6
FFF3
000B
FFFE
FFEF
0009
0002
FFF0
FFFF
0008
FFFF
0005
FFFC
0004
0005
FFFD
FFF4
FFFC
FFFF
000C
0001
FFF9
0003
FFFD
FFFE
0007
FFFA
FFF9
0001
0004
0003
0003
FFF9
0006
0008
FFF7
0003
0004
000B
FFF9
0006
0001
0009
FFFD
0006
000C
0007
0007
FFFD
0006
FFFE
FFFE
0005
FFFB
FFFA
0006
0000
FFFF
0000
000A
0002
0005
FFF7
0005
0001
FFF8
0001
0001
FFFC
0008
FFFD
0003
FFFA
0008
FFFE
0008
FFFE
0001
0008
0009
FFFE
0002
FFF1
0001
0008
0000
FFFE
FFF9
000A
000D
000F
0006
0001
FFFD
0000
0001
FFF5
FFFD
FFF9
FFFE
FFFF
0004
FFF6
FFFD
FFF3
FFF8
FFF9
0005
0002
FFFF
FFFF
FFFF
FFFF
FFFC
FFFC
FFF6
FFFC
0006
0002
FFF6
0001
0009
0001
FFFB
FFFE
FFFD
FFFE
0003
FFFC
FFFE
0007
FFFA
FFFD
0005
0010
FFFC
0009
FFF1
0001
000F
0000
FFFC
0005
0003
0006
FFEF
FFFB
000F
0006
0002
001D
FFF7
FFF3
0002
FFF3
FFFE
FFFC
0001
0000
0004
FFF8
FFFC
000C
0001
FFF7
FFFD
0001
FFF2
0004
FFFD
0003
FFFC
0000
0000
FFF2
FFFE
FFF4
0005
0001
FFF4
0004
0008
FFF8
0002
0006
0008
FFF6
0003
FFFC
FFFB
000A
0000
000C
0003
FFF5
0000
0002
0008
FFFF
FFF0
0009
000A
FFFD
0003
0006
0000
0001
FFFC
0012
0003
FFFC
0001
0006
FFFA
000E
0001
FFFB
0003
000B
0008
0006
000E
000C
0000
FFF7
0004
0001
FFFC
FFF7
FFF8
FFFD
FFFF
000A
FFFF
000C
0007
FFFB
FFFA
FFF6
0000
FFFF
0001
0001
000C
FFFB
0007
FFFD
FFFE
0006
0007
0006
FFF7
FFFD
0003
0004
FFFD
0002
FFFF
FFFB
FFFE
FFF8
0009
FFFE
FFFE
0008
0003
FFF2
FFF7
FFFF
FFFE
FFF9
FFFC
FFFD
FFF4
FFF8
0002
FFF8
FFFD
FFFD
FFFD
FFF9
FFF6
FFF4
0000
0006
FFFA
0008
000C
0006
FFFF
FFFD
FFFC
0007
FFF0
0005
FFEF
0009
FFFE
0006
0004
FFF6
FFF9
FFFF
FFF7
FFFD
0007
0003
FFFB
0002
FFF8
FFFE
0001
0002
0001
FFEF
FFFD
0002
FFFC
FFFB
FFF7
0006
0003
0004
0002
FFFD
0008
0009
FFFC
FFFF
FFFE
000A
000E
FFFB
0008
FFFA
0003
FFFB
FFFB
0000
FFF8
000D
0008
FFF9
0005
FFFB
FFFE
FFF8
0002
0000
FFF9
0005
0002
0002
0006
0007
0006
000C
0005
000C
FFF9
FFFC
0001
000B
FFFB
FFFB
0001
000B
0008
FFFE
0007
000C
FFF8
0000
FFFE
0000
0008
0011
FFFF
FFEE
0005
0000
FFF4
FFFA
0002
FFFC
0003
0003
0002
000B
000B
0003
FFF9
0006
0002
FFEB
0019
FFFA
0012
FFFE
0019
0009
0001
FFFC
0003
FFFF
FFF9
FFFD
FFE9
FFF8
000D
000B
FFFC
FFF9
0001
FFFE
FFF7
FFFA
FFF3
FFFE
FFFA
FFFC
FFFF
0000
FFF5
0003
0004
FFFB
0000
0001
0003
FFFB
000C
FFFE
FFF2
0002
0002
0006
0005
000A
0003
FFFD
0001
0004
0004
FFFF
0000
FFFC
FFFE
0001
FFF5
0008
FFF8
FFF4
FFFC
0001
0004
FFF7
0005
0002
FFFB
FFFA
FFFD
0000
0001
0000
0006
0003
0000
0006
0009
0003
0009
0005
0002
FFF8
000A
FFFD
FFFE
FFFF
0008
000E
000D
0000
0001
FFF6
FFFC
FFFF
0001
FFFF
0007
FFFC
FFF6
0004
FFFE
FFFE
FFFD
0005
0003
0000
0003
0003
0006
0004
FFFF
0002
FFFA
FFFF
0007
0005
0004
000B
000A
FFFE
000B
0004
FFFA
FFF5
0005
0009
FFF8
0006
FFF4
000E
FFF5
0007
0006
0004
FFFF
0007
FFF7
0000
0001
FFFC
0004
0004
FFFB
0002
FFFC
0004
000C
FFF6
0001
FFFD
FFFA
FFFC
FFFC
FFFD
FFFE
0005
FFFE
0001
000E
FFFF
0007
FFF4
000D
FFF9
0008
000F
FFF7
FFF7
0002
FFF2
FFFA
0000
FFFE
FFEF
FFF9
0001
0009
0003
0007
FFFF
0003
0005
FFFC
0004
FFFC
0002
FFF9
FFF8
0002
0005
FFF8
FFF9
FFFA
FFF6
FFFA
0007
0008
FFFB
0004
0007
000B
FFF8
FFFD
0006
0004
FFF3
0000
0000
FFF8
FFFF
000A
0005
FFF9
0000
FFF7
FFF9
0005
FFFC
0006
0002
0008
FFFE
0007
FFF6
FFFD
FFFB
FFFC
0002
0000
FFFE
0009
0003
FFFE
0001
FFF6
FFFF
FFFE
0001
0008
FFFF
FFFE
FFFE
FFF2
0008
0002
FFF5
FFFB
FFFC
0006
FFF9
FFFA
0001
0003
0003
FFF1
0003
0001
FFFD
FFFF
FFF5
0006
0004
FFFE
FFFC
FFFB
FFFD
FFFC
FFFE
0003
FFFC
0007
FFFF
0004
FFFE
FFF5
0001
FFFA
FFF8
0002
FFFA
0004
0007
FFF5
000F
FFFC
0005
FFFB
0000
FFFE
FFF7
0006
FFF7
0003
0004
0000
0003
FFFE
0000
FFF3
FFFA
FFF5
FFF1
FFFC
FFFF
0013
FFFF
FFFC
0007
0003
0004
FFFD
FFFE
FFFE
FFFC
FFFD
0006
FFF9
0003
FFF5
FFF7
0005
FFEB
0008
FFFA
0005
FFF3
000D
FFFF
FFF9
FFF6
FFFC
0005
0005
FFFE
0007
0005
0006
0005
0003
000A
FFF6
000C
0000
0007
FFFE
FFF7
0009
0004
FFF3
0001
FFFD
FFFA
FFF9
0008
0009
0007
FFF9
0013
FFF8
FFF5
FFF7
FFF7
0000
0000
FFFF
FFFC
FFFB
FFFF
FFFC
FFF6
0003
FFFE
000E
FFFF
FFFB
FFFD
FFFB
FFF5
FFFC
0009
0002
FFFC
FFF6
0004
0008
0006
0006
000B
000D
FFFD
0003
0002
0002
FFF5
0004
0000
0008
FFFB
000D
000C
0007
0001
FFFE
0006
0002
000A
000D
0006
000D
FFFC
FFFE
0005
FFFE
0002
0001
FFFC
FFFA
FFFA
FFFF
FFFD
FFF6
FFF8
0000
FFFA
0005
FFFF
000E
FFFB
FFFA
0008
000D
FFF9
FFFC
000A
0009
0001
FFF8
FFFE
FFFF
FFE9
FFF8
FFF8
0009
0004
FFFF
FFF9
000C
0003
0004
FFFF
FFFD
FFFD
0004
FFFC
0003
FFFA
0001
0002
0005
FFF8
0004
FFFD
FFEB
0005
0008
0000
0007
0004
0005
0007
FFFD
0007
FFF4
0001
FFFA
FFF3
0003
000D
FFFC
0011
0007
0000
0001
0009
0000
0006
0002
0001
0000
FFF4
0005
FFF9
FFF6
000A
0005
FFFE
0001
FFF9
0006
FFFF
0009
0008
0001
FFFA
FFFF
0005
0004
FFF3
FFFC
0007
FFF5
0004
FFFB
0000
0002
0006
FFF7
FFFD
FFFD
0006
0007
FFFF
000A
0009
FFF8
0011
FFF9
0000
0007
0009
0001
FFFB
0004
FFFD
FFF8
0008
FFF6
0005
FFFC
FFFB
0006
FFF9
0005
FFFF
0012
FFFE
FFF4
FFF4
0004
FFFF
000D
000A
0005
0002
FFF5
0006
0001
FFF2
FFFD
FFFB
FFFD
FFFE
0008
0005
FFFC
FFFB
0002
0007
FFFB
FFF5
FFFE
0009
0000
FFF5
0005
FFF0
0000
FFFD
0000
FFFF
0004
0002
FFF4
0008
FFFC
0002
FFF6
FFFA
FFFD
0006
FFF4
FFF8
0004
0002
000A
000C
0009
0002
0005
FFFE
0008
FFFE
FFFF
FFFA
FFFB
FFFE
0006
FFF3
FFF8
FFFC
FFF3
FFF2
0005
0002
FFFE
FFF5
FFF8
0000
FFF6
0008
0010
FFFB
000E
000C
0001
FFEF
FFFF
0007
FFE4
FFF4
000A
000A
FFFD
FFFB
000A
0014
000A
FFFC
FFEB
0000
0001
FFF8
FFFE
0000
0002
0002
000C
FFF6
0004
FFF3
FFFF
0005
0004
000E
FFFA
FFFB
000B
FFF8
FFFD
FFFD
0006
0002
FFFD
FFF6
0001
0006
0004
0001
FFFA
0000
FFFD
FFF4
0000
0004
FFFC
0001
0008
0005
0009
FFF7
0005
FFFD
FFF5
FFFE
FFFE
FFFE
0005
FFFF
000D
FFF8
000C
0006
0000
FFFB
0004
0002
FFFF
FFF5
FFFF
FFFE
0001
0008
FFF7
0000
0005
0003
0000
0000
FFF9
0005
FFFD
0000
FFFC
FFFD
000D
0003
0003
000A
0007
FFFC
FFFF
0001
FFF7
0002
FFFC
0005
FFFB
FFF3
FFFE
0000
FFFC
FFF6
FFF8
0003
0001
0009
FFFA
000B
FFFD
0006
FFED
FFF8
0001
0001
0006
0003
000B
FFFE
0003
0011
FFFA
FFFB
0003
0001
FFF4
0005
FFFC
000F
0000
FFFE
FFFD
0002
0001
FFF9
FFF8
0004
FFF1
000A
FFFD
0009
0008
FFFE
0007
000A
FFFD
000A
FFF7
0008
0006
FFFA
0006
000C
0003
0001
FFF8
0005
000A
FFFF
0008
0006
0008
FFFE
0007
0005
FFF4
0005
0003
0002
FFF8
000A
FFF6
FFF9
FFF9
0006
FFFC
FFFA
0007
FFF4
FFF3
FFF2
0005
0008
FFFE
FFF6
0008
FFFB
FFFA
FFF5
0000
FFF9
FFF9
0004
0000
0003
0000
0000
FFFF
0006
0005
FFFF
FFF9
0007
FFFE
0005
0002
0008
FFFC
FFFC
0001
000A
FFFB
0003
FFFE
0009
0007
000F
0007
FFF9
0005
0006
FFF7
000E
FFFE
0014
0006
0002
0009
0001
0003
0000
FFF8
FFFD
000B
0004
FFFB
0010
FFF7
0002
FFF9
FFF7
0000
FFF9
0003
0001
0001
FFF6
0000
FFFB
000A
FFFD
0002
FFEC
FFFE
FFFE
0000
0009
FFF8
FFFF
FFF2
0004
FFFD
0003
0001
0000
FFFD
FFFF
0001
FFFB
0001
FFFD
0006
0002
0000
FFF6
FFFD
0003
FFFA
0002
FFF9
0007
0002
FFFF
000B
FFF3
0009
0004
FFFF
0009
0000
FFF9
0014
0001
FFFB
000B
0003
FFFC
FFF7
0001
FFFC
0002
0009
FFF7
0004
0013
0004
FFF5
0002
0001
0005
FFF9
FFFA
FFF3
FFFE
FFF9
FFFB
FFE9
0008
FFFA
FFFB
FFF5
FFFE
FFF0
0004
FFF9
FFFB
000B
0006
0007
FFF0
0002
0007
FFF7
0005
FFF3
0009
FFF7
0001
0003
FFF9
0004
0004
FFFE
FFFD
0001
FFF9
FFFE
0002
0001
0007
0001
000B
0009
FFFC
FFFC
0005
0005
FFFF
FFF0
0006
0002
0001
FFF9
0010
FFF9
FFF7
FFFD
0009
0006
0001
0002
0005
FFF9
FFED
FFF7
FFFE
FFFA
FFFE
0004
0000
FFF7
000E
FFF6
FFFF
FFEB
FFFE
0000
FFFE
FFF7
FFFF
000C
0014
0003
0000
0007
0005
FFF5
0010
0003
0010
FFFB
000F
0004
FFEE
FFFA
0008
0009
0002
0003
FFFA
0002
0002
0000
0001
0007
000B
0000
0008
0000
0002
FFFE
0007
0006
FFFF
FFFE
0007
000B
0003
FFF7
0003
FFFC
FFF9
0001
FFFE
0001
000C
FFFB
FFFD
FFFD
FFF8
FFF7
FFF8
0000
0000
0006
0005
FFF2
FFF8
FFEE
FFF6
FFFD
FFFD
0001
FFF5
FFFC
FFFD
0001
FFFB
0003
000A
FFFF
FFF2
FFFE
0007
0007
0005
FFFF
000D
000A
0001
0005
0004
0001
0007
FFFE
0003
0002
0005
0002
FFF7
0006
0002
0003
0008
0003
0008
FFFD
0003
FFFE
FFFD
0000
0004
0004
0005
000E
FFF8
FFFD
0004
0002
FFFE
FFFE
0005
FFF9
0007
000A
0003
FFFD
0002
FFF6
0005
FFFF
0004
0006
0003
0000
000A
FFF6
0000
FFF3
0005
0001
0001
0003
0003
000E
0001
FFF9
0010
0002
0001
FFF9
FFFB
000B
FFF5
0007
FFFD
FFF5
FFF9
0006
0000
0000
0006
0003
FFFA
FFEF
FFFC
FFFF
FFFA
0005
0001
000A
0007
FFFA
FFFA
000B
FFFF
FFF8
0009
0006
FFF9
FFFE
FFFF
0005
FFFD
FFF2
0001
0003
FFFF
0002
0003
0003
0004
0001
FFFF
FFFE
000C
0009
0001
0006
000A
0004
FFFA
0003
0007
000B
0003
0005
0008
FFF3
FFF0
000B
0008
FFF9
0006
0008
0007
0007
0000
0003
FFFC
0008
FFEC
FFFE
0005
0009
0000
FFFE
FFF9
0010
FFFC
0005
0005
0004
FFFD
FFFE
000F
FFFA
FFFD
0004
0014
0005
0000
0003
0001
FFFC
0004
0002
FFFE
0005
FFF7
0000
0005
000C
FFF9
0004
0009
0014
0002
0007
0000
000F
0004
000B
FFFD
0001
FFFE
FFF8
0006
FFFC
FFF1
FFFD
FFFD
FFFA
FFFA
FFF9
000C
0003
000B
0004
0008
0001
FFF6
0009
0004
0001
FFF7
FFFC
FFF9
FFF7
FFF9
FFFD
FFFD
0001
FFFE
0004
FFFE
0002
0002
000A
0009
FFFE
FFFF
FFF9
FFFE
FFFD
0002
FFFB
0005
FFF8
FFFF
FFFF
0009
FFFE
FFFF
0003
FFFE
0004
FFFE
0007
0011
0009
FFF5
FFFE
FFF9
0012
FFFD
FFFC
FFF9
0007
FFFE
0003
0002
0009
FFFA
0003
0002
0002
0012
FFF9
FFFA
0007
000C
0006
0010
0009
FFF9
0002
FFF9
FFF8
0000
FFFC
0002
FFFB
FFFB
FFFB
FFF3
FFEF
FFFA
FFFE
FFFE
0005
FFFB
000A
FFFA
FFF4
0000
FFF1
FFF9
0005
FFFC
0005
0002
FFF7
FFFE
FFF8
FFF0
0004
FFFE
FFF9
FFFE
0006
FFFD
FFF6
FFFE
0006
FFF9
0000
0009
0006
FFF5
0000
FFF9
0006
0003
FFFE
0009
FFF4
FFE5
FFFA
000E
FFFB
FFFF
0003
FFFB
FFF8
0004
0015
0004
FFFA
0007
FFFE
FFF7
0018
FFFB
0000
FFF9
000E
000A
0002
0008
0015
0002
FFF9
0008
FFF5
0005
0002
FFF5
FFFD
FFFF
FFFE
0001
0008
0000
FFFD
0000
FFF7
0001
FFFD
FFF6
FFFE
0009
FFFC
000B
000C
FFFF
0003
FFFA
0001
FFF8
0002
0002
0007
0005
0009
0002
0003
FFF8
FFEC
FFF8
FFFD
0003
FFFF
0001
FFFB
FFF7
000A
FFFE
0000
FFF7
FFF4
FFF2
FFFE
0007
0000
FFF9
FFF9
0001
0001
000A
FFFC
0006
FFFE
0002
0005
FFFF
FFFC
FFFA
FFF3
0000
0006
0001
0000
0002
FFFC
0004
000E
FFF9
0003
FFFB
FFFD
FFFF
FFF3
FFFC
FFFD
0008
FFFE
0000
0008
FFFD
0004
0003
0005
0008
0003
0006
0010
0001
0000
FFFD
0001
0005
0006
0000
000B
FFF8
0007
FFFF
0007
0005
0005
FFF8
FFF9
0003
0008
000C
000A
0008
0009
FFFE
000B
0003
0004
0001
0006
0002
FFF8
0000
0006
0003
0000
FFF6
000A
FFFC
0000
FFFF
FFF0
FFF6
FFFB
000D
FFE5
FFFC
FFF7
FFFB
FFF1
0002
FFF9
0003
FFF6
FFF5
FFF8
FFFE
FFFF
FFFD
0005
000A
000E
0006
0003
FFF5
0007
0000
0003
FFFD
FFF6
0004
FFF3
FFF4
0001
0003
0004
FFFC
0000
0002
0004
0003
0000
FFFE
0008
0000
FFFE
FFFA
FFF5
FFFD
0005
0007
FFFC
000A
FFFC
000C
FFFD
FFFD
FFFB
FFFC
000D
FFEC
0004
0000
FFF3
0000
FFF6
0000
FFFC
0001
FFFD
FFF5
FFF4
0008
FFFF
0005
FFEE
FFFE
000A
FFFA
0010
0007
FFF9
FFFC
0009
0006
FFFC
0007
FFFE
FFF4
000C
0004
0004
0008
FFFF
0002
FFFC
FFFA
0001
FFED
0001
0001
FFF2
0005
FFFD
0002
0000
0006
FFF7
0005
0004
FFFF
FFFE
FFFB
0009
FFFE
0002
FFFD
FFFC
FFFA
0003
0000
000F
0003
0003
0002
0004
FFFA
FFFE
FFFA
0002
0006
FFFE
0007
0004
FFF8
FFFC
FFFE
0009
FFFD
FFF1
FFF3
FFFE
FFF3
FFFC
0005
FFEE
0003
0004
0009
FFF9
0012
0000
FFFD
FFF0
0002
0001
0009
FFFF
0006
FFFC
0002
FFFE
FFFA
0007
0005
0006
0006
FFFD
FFF8
FFFD
FFF7
0004
0006
FFFE
000B
FFFA
FFFB
FFFF
FFEF
FFFD
0000
0017
FFFC
FFFE
0004
FFF9
FFFF
FFFB
0000
0003
0007
FFF8
FFF5
0002
0000
0009
0004
0009
FFFD
0000
FFF1
0004
FFF7
0002
000C
FFFC
000D
0007
0002
0015
FFF6
FFFA
000B
000A
FFF9
0006
0003
0001
FFFF
0004
FFFB
0006
0002
0002
FFFB
FFFE
0004
FFFC
FFFB
FFFF
000A
0004
0006
0008
000D
000F
FFF5
FFFD
FFF9
FFFB
0004
0003
FFFE
FFF8
FFFA
FFF3
0008
FFF8
FFF2
FFF4
FFF5
FFFA
FFFC
FFF6
0002
0007
FFFE
0005
FFEF
000D
FFF4
FFFC
0004
0001
0006
0006
FFF9
FFF8
FFFF
000C
FFF9
FFFD
FFFD
000F
0012
FFFC
FFFA
0005
0002
FFF8
0002
FFFB
0002
FFFF
FFF7
0003
FFF4
FFF9
FFF9
FFFB
0008
FFFF
FFF3
0005
0004
0005
FFFB
FFF6
FFF4
FFFD
FFFE
FFF4
0007
0002
0003
000C
0004
FFFF
0006
FFFB
0006
0002
0004
0009
FFF9
FFF9
0000
FFFD
FFF9
FFEB
FFFD
FFFA
0000
FFFE
FFFE
FFFE
FFEC
FFFF
FFF6
FFFF
FFF7
FFFC
0002
0000
000A
FFFE
0002
0008
0005
0000
0009
FFF8
0007
0000
FFF5
0007
FFFE
0004
FFF6
FFF6
0000
FFFF
0003
FFFB
FFFE
FFF3
FFFB
0003
0004
0007
0004
FFFA
FFEE
FFFC
0001
FFFB
0007
0006
0003
FFFA
0003
0005
0001
FFFB
0006
FFFD
FFFB
000B
FFFF
0008
0011
FFFE
FFFD
000D
FFEE
FFFF
FFFD
FFF6
0007
FFFB
0005
000C
0006
FFF2
FFE9
0004
FFFE
FFF7
0000
0001
0005
FFFF
0003
FFFB
0004
FFFE
FFF4
FFFB
0001
0000
FFFE
0004
FFF8
FFFA
0003
0000
0009
FFF8
FFF7
FFFB
0004
0000
000A
FFFF
0006
FFF5
0009
0008
FFFF
0000
FFFC
0000
0004
FFFA
FFFF
0004
FFFE
000D
FFFD
0000
FFFC
FFFB
000C
FFFE
FFFF
FFFE
0004
0005
FFF8
FFEF
FFFF
FFFB
000B
FFFC
FFF6
FFFE
0005
FFF4
FFF5
FFFE
0008
FFFB
FFF6
FFFD
0009
FFFB
0006
000C
FFFF
FFFD
000A
0004
0001
0009
FFFA
0005
FFF4
FFF2
0004
FFFF
0007
000D
FFFE
000B
FFFD
FFF2
0010
FFFA
000B
FFF6
0004
0007
FFEF
FFFC
0002
FFFF
FFF3
0001
FFF0
FFF7
0002
0004
FFF5
FFF9
FFFA
0003
FFF8
FFF3
0001
0006
FFFE
0005
0000
0004
0001
0002
0005
FFFA
FFFB
0001
0000
FFF6
0008
FFF8
FFFF
FFFC
FFFD
0003
0006
0005
FFFC
0004
FFFF
0000
000B
FFFB
000E
0006
FFFF
FFFC
0005
0001
FFFC
0004
FFFD
0003
0009
FFF7
000A
0003
FFFB
0003
000A
FFFB
FFF7
0005
0008
0002
FFF2
FFFE
0004
0006
0008
0009
0006
FFFC
0008
0006
FFF3
FFF8
0005
000D
000C
FFFA
0006
FFF9
FFFC
0000
FFF8
0008
0003
0009
FFF8
000F
FFFF
0009
FFFD
FFFF
0000
0003
FFF8
FFF8
0000
0007
0006
FFFD
FFFF
0002
FFF7
FFFF
0005
000B
FFFE
0001
0002
FFFD
FFFC
FFF4
FFFE
FFFC
000C
FFF7
0006
0000
FFF0
FFF9
FFFF
0004
FFF7
0002
0004
0009
FFFB
FFFB
FFFD
FFFA
0000
0004
0002
FFFC
0012
FFF6
0000
FFEC
FFF3
0006
FFF7
FFF8
FFFF
0000
0004
0000
0002
0003
FFF8
0004
0003
0002
FFF6
0005
FFF7
FFF8
0000
FFFE
0009
0008
0002
0002
0004
FFFF
0002
0003
0003
0004
0001
0004
FFFC
0005
FFFC
0004
FFFD
0000
0004
FFFC
0005
FFF5
0002
FFF2
FFFB
0006
0005
0002
0007
FFFF
FFFF
0000
0005
0003
0001
0000
0006
FFFE
0006
0001
0004
0009
FFF3
0002
000D
0004
0000
0001
0004
FFFD
0009
FFF6
FFF9
0001
000B
FFF8
0002
FFFF
0004
0002
0008
0002
0009
FFFE
FFF7
0002
FFFD
0002
0011
FFFF
0011
000B
FFF5
0004
FFF7
0008
000A
0006
FFFE
FFFC
0003
FFFC
0001
0001
FFFA
0000
FFFD
FFFB
FFF6
FFF8
0004
FFFE
FFFA
FFF6
0007
FFFA
FFFE
FFFF
0003
0001
FFFC
0007
0007
000A
FFFF
FFF9
FFFA
0009
0003
000D
0007
FFFC
0000
FFFA
0009
FFFF
FFF8
FFFF
0008
FFFC
0008
FFFC
0008
FFEE
0006
000A
FFFF
FFFD
FFF6
FFFC
0005
000C
0004
0001
0010
0005
0000
0001
0003
FFFF
FFFF
0009
FFF9
FFFC
0001
0001
0008
0004
FFFE
0001
0005
FFFD
0004
FFFB
0005
000A
0009
0006
0006
0004
FFF8
0007
FFFC
FFFA
FFFE
FFFD
0001
FFF9
0002
FFFF
FFF5
FFF7
0003
FFFE
000A
FFFE
FFFF
0018
FFFB
FFFC
0003
FFFA
0008
FFFA
FFF2
000B
0002
FFEF
0001
0000
0001
FFFD
0003
0006
000B
FFFE
0000
0002
FFF8
FFFF
FFFB
0005
0006
0009
000B
0007
0001
FFFE
FFFF
FFF6
FFFD
FFFB
FFF4
0001
0006
0007
FFFA
0008
0004
FFF6
0003
FFF8
FFED
FFF9
0004
FFF7
0003
0020
FFFA
0002
0000
FFFC
0002
0004
0001
0007
000D
FFFB
0003
0001
0000
FFF8
0001
0007
FFE7
0006
FFFD
FFF1
0002
0000
0006
FFF8
FFFE
000A
FFFE
FFF8
000B
0007
000A
FFFF
FFFD
0006
0002
0010
FFFF
0000
000A
0011
FFFE
0001
0001
FFFF
0002
0005
FFF9
FFFC
FFFA
FFFA
FFF3
0001
FFFA
0009
0001
FFFC
0003
FFEE
FFF8
0003
FFFF
FFFE
0003
0000
FFF7
FFF6
0008
FFF2
000B
0008
FFF6
0005
0007
FFFD
0002
FFFA
FFFD
0004
000A
0003
0005
FFF8
000B
FFFB
FFF6
FFFF
FFFE
FFF5
0002
FFF2
FFFB
0002
0004
FFFD
FFFF
FFFE
FFFA
FFFB
0002
FFF8
000B
0001
FFFF
0004
FFFC
FFF8
FFFE
FFFB
0003
FFF8
FFFE
0001
0003
FFFE
0006
0001
0000
FFFC
0006
FFFF
0006
0003
000A
0005
FFFD
0003
0008
FFF8
0000
0007
FFFB
FFF7
FFFB
FFFD
FFF7
FFF5
FFFE
000F
FFFD
FFF7
0003
0006
FFFA
0000
FFF9
000D
FFF7
FFF3
FFF9
FFFE
FFFF
FFFC
0000
000A
0005
FFF7
0001
FFFA
FFF8
0009
0009
FFFF
0009
0005
FFFD
FFF5
FFFC
0003
0004
FFF8
0007
FFFF
0000
0000
0006
FFFF
FFFD
FFF3
FFF9
FFFB
0003
0003
0007
0002
FFFE
0002
0009
FFFF
FFEE
000F
0006
FFF2
FFFC
0008
FFFB
FFEE
000C
000A
FFF1
FFF0
0005
0003
0002
0005
FFFA
0006
FFFB
FFF9
FFFB
FFFA
0001
FFEF
FFF4
FFFF
0001
FFF5
FFFF
000D
0000
FFF9
FFFF
FFF4
FFFC
0004
FFF7
FFFB
000D
0001
0000
0003
0008
0007
FFFF
0001
FFF2
FFFD
0001
0002
0004
0004
FFF5
0001
0005
FFF3
FFFE
FFF5
FFFF
FFFB
FFF8
0000
FFFE
FFF5
FFFD
0003
FFFA
0008
000E
0006
0006
0012
0000
FFF9
0001
000E
0008
0008
0001
FFFE
0005
FFF7
FFFB
FFF8
FFFF
FFF0
0000
FFFA
FFF8
0001
0006
000E
FFF9
FFFC
FFFB
FFFB
FFFB
FFFD
0004
FFF5
0006
0006
0010
FFFE
000B
000C
FFFC
FFF1
0001
FFFF
FFFE
FFF8
0004
FFFF
0003
0003
000C
0002
0005
000C
0007
FFFD
FFFD
FFF8
0006
FFFB
FFFC
0005
FFFD
FFFB
0005
0000
0003
FFFA
0004
0005
FFF8
FFFD
FFF7
FFF5
0004
0003
FFFA
0001
FFFC
FFF1
0005
0008
0003
0002
0002
000C
FFFF
0003
FFFF
FFF6
FFF8
0003
FFFC
FFFA
0000
0001
0008
0004
0000
FFFB
0005
FFFC
0000
0004
FFF7
FFFC
FFFA
0007
FFF9
0001
FFFF
FFFC
FFFC
0008
0005
0004
FFF4
0005
0000
FFFF
FFFA
000F
000B
0004
0007
0009
FFF0
0001
0001
0000
0001
0004
FFF2
FFFC
000E
0002
FFF1
FFEC
0001
0003
FFF8
0006
FFF8
0006
FFFE
FFFF
FFF5
0006
FFF8
0001
0008
0000
0004
FFFA
FFFF
FFF6
FFFC
FFFA
0006
0001
FFFF
000F
0004
FFF8
FFFF
0000
FFF5
FFF8
FFFE
0000
0001
FFF4
000A
0002
0003
FFF9
FFFF
0001
0005
FFF9
FFF6
FFF9
0003
0001
FFFE
FFF7
FFFF
0002
0007
FFF5
0009
FFF8
FFF9
000E
0002
FFF5
0001
0003
0000
FFF6
FFFE
FFF3
FFFC
0005
FFFB
FFFB
0005
FFEA
000E
000C
FFF8
FFF7
FFF8
FFF4
FFFA
0004
000D
0000
0000
0007
000A
FFF2
FFFD
FFF6
FFFD
0000
0000
FFEE
000D
FFFB
000A
000A
FFF7
FFFA
0006
FFEB
FFFB
0000
0005
000D
FFF6
FFFC
FFF7
0007
FFFE
FFF7
0000
FFFB
FFF6
FFF7
FFF6
FFF8
FFFE
FFFA
FFFD
0002
0002
FFF8
FFF6
FFFE
FFFA
0003
0001
0009
FFFE
FFFC
FFF9
FFF7
0000
0002
0004
FFF7
FFED
0001
FFF8
0000
0007
FFEA
FFFF
FFFD
000D
FFF1
FFFA
FFFF
0005
FFFC
0005
0000
0001
FFFC
0003
FFFB
FFFB
0000
FFFD
FFFC
FFF7
0010
0005
0005
FFF8
0001
0006
FFF6
0000
FFF7
FFF3
FFFD
0009
FFFD
000B
FFFC
000D
FFEE
0000
FFF5
FFFC
0002
0010
0007
0004
0001
0004
0003
0000
0000
FFFE
FFFA
000D
FFFD
FFFD
FFFC
0006
FFF2
FFFE
FFEB
FFF2
0006
FFFC
0003
FFF9
FFF5
FFFD
FFFB
FFEC
000C
FFF5
FFFE
000A
FFF6
FFFF
FFF1
FFFC
0000
0001
FFFB
FFFA
0002
0002
FFF5
FFF7
FFF2
FFFB
FFF1
0003
0007
0001
FFFD
000A
0007
FFF8
FFFB
000A
FFFA
0003
0004
000A
FFF9
0003
FFF9
FFEA
0004
0008
FFF9
FFF9
0012
FFE9
0003
000B
0009
FFFD
FFFF
0002
FFFB
0000
FFFD
FFF2
000C
0004
FFF4
0008
0007
FFFC
000B
FFFA
FFF9
0004
FFFF
FFF9
0004
FFFF
FFFF
FFF7
FFFA
0006
0009
FFF6
0007
FFFC
FFFF
FFFE
FFFB
0007
FFF8
0007
FFF9
0000
FFE4
FFFA
000D
FFFB
000F
0006
0004
0004
0001
000D
FFFE
FFF5
FFF3
0008
FFFE
FFFA
FFFB
000F
0004
FFF9
0002
0003
FFFB
000A
000C
FFFD
FFFE
0000
0005
FFF1
FFFC
0002
0007
000B
FFFD
0005
FFFE
FFFE
FFFF
FFFE
FFFD
FFF1
0007
0007
0002
0002
0000
FFFF
FFFC
FFFD
0007
0005
FFF6
0000
000F
0001
FFFB
FFFD
0006
0006
0000
FFF9
0006
0001
FFFB
FFFA
FFFE
FFFB
FFFA
FFFC
0004
0003
0003
FFF5
FFEF
FFFF
000D
FFFD
FFFD
0000
FFFD
FFFD
FFF1
0002
FFFF
FFF9
FFFD
FFF7
FFFB
0003
FFFB
0011
FFF5
0000
FFF8
FFFD
0007
FFFB
FFF9
FFFF
000A
FFFA
0006
0007
0000
FFFD
0005
FFFF
0004
0002
FFFB
FFF8
FFF9
0005
0002
FFF8
FFFE
FFFE
0010
0000
FFFC
000F
0004
0003
0003
0004
000E
FFFF
0004
0000
FFF9
FFFE
FFF0
FFFA
FFFE
FFF8
0002
FFEF
0005
FFFD
0003
0004
FFFF
0008
FFFE
0001
0006
0002
0003
0001
FFFA
FFF8
FFF9
FFF7
FFF7
FFFF
0001
FFF0
FFF9
FFF9
FFFD
0004
0006
0002
0009
000E
FFFF
FFFA
FFFC
0002
000C
FFF4
FFFD
0005
000C
0003
FFFF
FFFE
0002
FFF7
0002
FFFF
FFF6
FFFF
FFF6
0003
0002
FFF6
FFFE
FFFF
FFF2
FFFC
FFFF
FFFA
0002
FFFE
000B
0005
0008
FFEB
0009
FFFC
FFFB
FFF7
0001
FFFD
FFFA
0003
0001
0004
0001
0008
0004
0003
0004
0006
0004
FFFD
0013
FFF3
FFFE
FFF8
0010
FFFF
0005
0003
FFFE
0009
FFF3
0009
FFFB
FFEF
FFFC
0004
FFF4
0007
FFF4
0008
FFF2
0008
FFF9
0002
0003
0000
FFFC
0004
0005
0005
0000
0007
0005
FFFA
FFFB
0002
0013
0003
0005
FFF8
0006
0005
FFFC
