000B
FFC4
0019
FFFF
FFB9
001E
FFE4
FFF7
0013
0016
0005
002F
000B
FFC6
FFF0
0002
0006
FFE7
0018
FFFB
FFC2
0021
FFE0
FFDA
0033
FFEA
FFF5
FFE1
002F
FFCD
0002
000D
001C
0031
000F
0011
FFDA
000B
FFD1
FFCC
0024
0016
FFDE
FFC0
0006
FFD9
0019
001B
FFF5
0020
0000
001B
FFC4
0021
FFD6
FFF6
FFF8
FFFD
FFE1
FFCC
0017
FFE7
0004
0011
0001
0031
0008
0004
0000
001C
FFD5
0015
FFFA
FFDD
FFEE
0009
0011
FFE4
FFEE
0020
0018
0033
0013
0024
FFFC
001D
FFE6
001B
FFF6
FFFF
FFD5
0023
FFF1
FFEE
0007
001A
FFF5
0052
0015
000F
FFFB
001C
FFE1
FFFD
FFF4
FFE5
FFCF
001C
0002
FFEC
FFF1
0006
FFFE
0027
0025
0022
001B
0002
FFE7
0027
FFE0
0000
FFD6
002A
FFF2
FFF8
FFF2
0008
FFF3
0021
0002
0022
FFF4
0006
FFE1
002B
FFDE
FFFB
FFFD
FFF7
FFFF
FFD4
FFFF
0009
FFFA
FFF6
0014
0005
FFFD
000E
001B
0010
FFE5
FFF0
FFF9
0023
0014
FFEB
0005
000F
001F
FFE1
0010
0011
0032
0005
0010
0015
FFD1
000E
001E
000C
0005
000D
000D
0000
0022
FFC3
FFFF
000F
0025
FFFE
FFF3
000C
FFE7
FFFF
000A
FFD4
000D
0019
FFF5
000B
0009
FFC0
0007
0005
002A
000A
0020
0006
FFD2
FFE8
0018
FFC9
0003
0006
0020
0010
000C
FFBE
0000
0007
002D
FFF7
0010
000A
FFDE
FFFF
000B
0018
0012
000C
0017
0003
FFEB
FFE0
FFFC
000B
0012
FFFA
000D
FFF2
FFE5
FFE2
0022
001F
0029
0020
0004
000D
0006
FFCD
000B
0005
001A
FFFC
FFFA
0007
FFD7
FFE9
0008
003E
0021
000C
001D
0005
FFF3
FFDC
FFF1
0000
0041
FFF8
000C
FFE0
FFFF
000C
0012
0015
0005
0021
003E
0000
0014
000D
FFEB
0017
0047
FFFD
001C
FFCF
FFF5
FFEC
FFF9
FFDC
0006
001C
0015
000C
FFFF
0016
FFE6
0002
0004
FFF8
001C
FFD1
FFE2
FFFC
0003
FFCD
0021
0038
0008
0005
FFED
001C
FFEF
FFF4
000C
000C
001E
FFDA
0002
FFE0
FFF8
FFFE
FFF6
0017
FFE0
0006
FFF4
0006
FFE4
FFF8
001C
0003
0029
FFE3
0003
001C
FFF5
FFEC
FFED
0013
FFE5
0004
FFF2
003A
FFF6
FFFA
000E
FFF4
0006
0001
0004
0036
FFF5
FFF7
FFE0
002D
FFCE
FFF2
FFE0
0026
FFE6
FFF9
FFC9
FFFF
FFFF
000E
0015
002A
0009
0019
FFE1
0026
FFDE
0000
FFE8
FFED
FFED
0006
FFCE
FFF1
FFF1
0006
001E
0040
FFF6
0025
FFE3
0022
FFED
FFEF
FFD8
FFF0
FFDD
FFF1
FFCB
0003
0008
0026
001B
0016
0000
FFE0
0012
FFFF
FFEB
FFE6
FFED
FFE2
FFE4
FFFF
FFD5
FFF7
000E
000F
0015
003D
002D
FFB4
0015
0017
FFE4
FFEB
FFF7
FFD5
FFF6
FFE8
FFCE
FFFD
FFED
0026
003C
0019
0038
FFCC
001C
0017
FFEF
FFEF
FFE0
FFC4
FFF8
FFE4
FFDC
FFEB
001E
0017
0033
FFF7
0022
0042
0032
0004
FFF6
FFF4
FFF2
FFCE
FFF4
FFD5
FFE4
FFFC
FFFD
0019
0016
0021
0039
0051
002B
0017
FFEC
FFEE
FFF5
FFF4
FFEE
FFFB
FFFC
0002
0008
FFF9
0032
FFF7
0022
0019
0017
FFF6
FFF2
FFF3
000D
FFDB
FFF0
FFD9
0010
0003
0001
FFE9
0013
FFE9
001E
002A
0004
0001
000C
FFF7
FFFC
FFD6
FFF3
FFE8
FFF7
FFF7
000F
FFDB
0024
FFFD
001D
FFB8
0001
FFF4
0023
0004
000A
000B
FFF5
FFDB
FFFA
FFFE
0016
FFFB
0023
FFFE
0015
FFAE
FFFB
FFF2
0026
000A
FFED
0025
0004
FFE4
FFF2
000D
FFF9
FFD1
002C
FFC8
FFFC
FFEA
FFFC
0003
000C
FFFC
001D
002A
FFF8
FFE1
0027
0006
0008
FFE2
0000
FFDD
FFFF
0059
FFD2
FFE7
FFF1
0001
002D
001C
0009
FFE4
000A
FFFB
001B
FFDD
FFFB
FFD3
FFFD
006C
FFEE
FFFF
FFF4
FFF3
001C
0035
FFEB
FFE9
002A
0007
001A
0005
001C
FFCE
FFF2
0005
FFEE
0002
0021
000A
002F
002F
FFF3
0000
FFFE
FFFC
0011
FFE2
FFF1
FFD4
FFF9
FF9F
FFE7
FFF8
0024
FFF4
0022
000E
FFFE
FFF3
0031
FFFD
0010
001A
000C
FFCA
FFF7
FFBF
FFE3
FFDB
0031
0012
003E
0009
FFF6
FFEF
003B
FFFC
FFE7
0008
000D
0000
FFEF
FFEB
000A
0004
002A
FFF7
0036
0012
0001
0002
0039
FFF7
0005
002F
FFF9
FFE4
FFF7
0012
FFFF
FFF8
0004
0007
0029
FFF7
FFF7
FFF3
0035
FFFB
0002
003B
0009
FFE9
FFE6
0080
0015
FFEA
0021
0002
000E
FFCE
FFF7
001A
001E
FFFB
FFE4
0035
0015
FFF9
FFFC
002D
FFFD
0001
FFFF
FFF3
0006
FFF8
0012
001B
FFF4
FFFC
FFF8
0013
0005
001A
0008
FFF5
0007
0002
FFFD
0002
FFDC
FFDF
000B
000F
FFF6
FFF3
FFE5
0028
0003
FFFD
0014
FF9F
0023
000B
0000
000A
FFDA
FFFA
000D
001C
FFE1
FFF6
FFF4
0011
0004
0005
0010
FFDC
000F
FFF1
FFE2
FFFC
FFD9
FFE3
000C
0015
FFFC
0008
FFE5
000C
FFFB
FFEE
0008
000B
FFFA
FFF2
FFE8
0006
FFCE
0018
0015
0014
FFBC
FFFC
FFCF
FFDD
FFF8
000F
FFFE
0090
0000
FFF4
FFC7
0014
FFE4
002F
000A
0010
FFC2
FFFF
FFF1
FFEC
FFFA
0028
FFF3
00A6
FFE8
FFE0
FFD9
000A
FFCE
0016
0001
FFF9
FFCB
0015
FFDE
FFD8
FFFD
001F
0001
FFFD
FFF2
FFE2
FFCD
0002
FFD5
0023
0019
000C
FFD8
FFFA
FFF5
FFEF
0012
0026
FFE3
FFD3
FFF6
FFF8
FFD6
FFF6
FFD8
003B
001A
0003
FFFE
FFF7
001C
FFE5
0009
0035
FFCC
FF50
000A
FFEC
FFFE
FFFA
FFD6
0036
001A
FFF9
FFEE
FFF1
0024
FFED
FFE2
002A
FFDD
FF9E
0005
FFEF
0013
FFF6
0007
0025
0016
0012
0024
FFEE
002B
FFDF
FFDE
0029
0003
FFED
FFFA
0000
FFF5
FFFD
FFD6
FFED
001B
FFF1
0022
FFE8
0020
FFEB
0001
0026
0012
007D
0013
0009
FFE1
FFE8
000D
0013
0009
FFF1
0008
FFEE
001D
0017
FFE1
001F
0019
0068
0006
001A
FFF6
0003
FFEA
FFEE
000A
0003
0011
FFE8
001E
000A
FFDE
0003
0008
001D
FFF6
0018
FFE7
FFE5
0014
FFCB
000E
FFEF
0005
FFF3
0013
FFF5
FFF4
0005
0020
FFD4
001F
0007
001C
FFED
0026
FFDD
0012
FFF2
FFFF
FFE5
0002
0025
FFED
FFF0
0008
FFD9
0025
0002
FFF8
FFE1
FFFD
FFCD
0017
0011
FFE7
FFE7
FFE2
FFF8
FFD9
FFFA
0007
FFB7
0011
FFF7
002D
FFEC
001F
FFDB
000F
0006
0000
FFF3
FFFC
FFF6
0001
FFC7
FFEC
000E
0015
0002
0015
FFF7
003B
FFEF
000C
000A
FFDF
FFFC
FFD3
000C
FFE0
FFB2
FFE1
0022
FFFF
FFF0
0025
FFF0
0005
000D
000F
0003
FFF2
FFF7
FFD8
FFFC
FFFA
FFD7
FFE5
0042
0013
FFFF
0046
FFF8
003F
0011
FFEB
0000
001C
0006
FFC9
FFFE
FFF3
FFC8
FFD0
FFDA
FFF1
0009
0035
FFF6
