FFBF
FFE3
FFF6
FFEF
FFDE
FFD1
FFE2
FFC1
FFF0
FFF8
0009
FFDC
FFBE
0003
FFBF
000B
FFEE
FFF4
FFDD
FFFA
FFBF
FFFC
FF8B
FFF2
FFD9
FFF6
FFC5
FFBC
FFE3
FFD0
FFD9
FFFB
FFBC
0003
FFAE
FFC7
0002
FFC5
FFE6
FFE2
0019
002B
FFCE
0033
FFE3
FF8C
FF98
FFD3
FFC4
FFF3
FFFB
FFF8
FFE2
FF9A
FFF9
000C
FFED
FFC1
FFC6
FFD0
FFE5
FF8A
FF9C
FF8C
