FFFB
0002
0003
FFFE
FFF4
FFFE
0000
0004
FFFB
0006
0000
FFFD
FFFA
0004
FFFF
0003
FFFE
FFF7
0002
FFF8
FFF4
0001
0003
0004
FFF2
0004
0001
FFF8
FFFB
0001
FFFD
0006
0006
0008
FFFF
0001
FFFB
FFF8
000A
0007
0006
FFFE
FFF6
FFF8
0001
FFF6
0003
FFFB
FFFB
0004
FFFC
0001
0001
FFFC
FFFC
FFFF
000E
0003
FFFC
0005
000B
FFFE
0002
FFFC
FFFC
FFFB
0001
FFFB
0005
FFFF
FFFF
FFFE
FFFA
FFFC
FFFF
FFFF
0003
0008
000A
FFF8
0003
FFFF
0006
0002
000A
0008
FFFE
0000
FFFF
0004
FFFE
000A
FFFB
0006
FFFC
FFF9
FFFB
FFFD
0005
0001
0005
0000
FFFB
FFFC
FFFF
0008
0002
0004
FFFD
0001
FFFB
0001
FFFF
FFFA
FFFC
FFF8
0005
FFFD
FFFC
FFFB
FFFB
0000
0002
FFFA
FFFE
0002
FFFE
0003
FFFA
FFF4
FFFD
FFFB
0000
FFFA
0000
FFFF
FFF0
FFFA
FFF6
0002
FFFB
0006
0004
FFFE
FFFE
FFFD
0004
0007
0002
0006
0002
000B
0004
FFF3
FFFC
0009
FFFB
0001
0004
FFFA
0003
FFF6
0003
0001
FFFE
FFFC
0000
0006
FFF8
FFFD
FFF5
FFFE
FFFB
FFFF
FFFE
FFFF
0004
0001
000B
0007
0001
0005
0000
000B
FFF7
0003
0002
000A
0002
FFFF
0005
FFFE
FFFE
FFFA
FFFE
0002
FFF9
0001
FFFB
0003
0004
000C
0001
0000
0014
0001
FFFB
0000
FFFF
0005
0004
0000
FFF5
0004
000A
0007
0002
0002
0003
0002
FFFF
FFFB
0008
FFFE
FFF9
FFF6
FFFE
0000
FFFD
0002
FFFF
0002
FFF5
FFFA
FFF6
FFFE
0000
FFFF
FFFC
FFFF
0006
FFFD
0012
0002
FFFE
0005
0004
0009
0004
FFFC
0004
0003
0002
FFFB
0006
0000
0008
FFFD
FFFB
0003
0006
0003
0001
0006
FFFD
FFF8
FFF9
0004
0001
FFF8
FFFD
FFFF
0003
FFFF
FFFF
0005
0004
FFFB
0001
0005
FFFC
FFFE
0000
0003
0004
FFFE
0007
FFFB
FFFF
0001
FFFE
FFFD
0003
0007
FFF3
FFFB
FFF3
0006
FFF6
0002
0007
000F
FFFD
FFFB
0002
FFFF
0005
0002
0005
000C
0008
FFFC
FFEC
FFF6
FFF9
000C
FFF2
0006
FFF5
0000
0002
0004
FFF6
0000
FFFE
FFFB
0002
FFFE
0006
FFFE
FFF8
0002
0004
FFFF
FFF7
FFFE
0004
FFFC
0000
0002
0009
FFFE
FFFB
FFFB
FFFC
FFFB
0006
0005
0000
FFF9
0005
FFFD
0002
0001
0006
0003
FFF7
0000
FFFF
0003
FFFD
FFFD
0004
0008
FFF9
FFFE
0007
FFFC
FFFF
0002
FFFF
FFF7
0009
FFFC
0007
0002
FFFF
0006
0002
FFFB
0002
0001
0006
0001
FFFE
FFF9
0005
FFFC
FFFE
0008
FFFE
FFFF
0001
0001
FFFA
0008
FFFE
0002
FFFF
FFFD
0000
FFFC
0004
0001
0000
0003
000B
0004
0002
0009
FFFE
FFFC
0003
0003
0001
FFFD
FFF9
FFFD
0001
FFFD
0003
0003
FFFA
FFF6
FFFE
FFFA
FFFC
FFFB
0009
0005
FFFC
FFFB
0002
0005
0007
0007
000A
0009
FFFC
0004
FFF9
0000
FFF8
0006
FFF4
000A
FFF9
FFF7
FFFD
FFFE
0003
FFFE
FFFF
0005
FFF6
0003
FFF9
0009
FFF5
0003
FFFF
0007
FFFE
FFF8
FFFF
0003
0005
0007
0001
FFFD
0004
0000
0000
FFFA
FFF7
0004
0002
0001
FFFD
FFFA
FFF7
FFFF
0000
FFFA
0001
0002
FFFB
FFFA
0000
FFF2
0004
FFF8
000A
0004
FFFA
FFFF
FFFF
0003
0005
000A
000A
000B
FFFC
0007
FFF3
0005
FFFA
0005
FFF1
0004
FFF9
FFF4
FFF8
0002
0013
0004
FFF9
0002
FFFB
0007
FFFB
FFFA
FFF1
FFF7
0003
0004
000B
FFF9
FFFF
0000
0009
FFFD
FFFB
FFFC
FFFB
0000
0002
FFFF
FFFB
0002
FFF6
0005
0000
FFF8
0000
0003
FFF8
0005
0006
FFFF
FFFB
FFF9
FFFF
0001
0007
FFF9
FFFD
FFF9
FFFA
0001
0001
FFFD
FFFC
FFFF
0001
0003
0000
FFFC
FFF6
000A
FFFB
FFFB
FFFF
FFFF
0002
0000
0000
FFFD
FFF7
FFFD
000B
FFFD
0003
0002
FFFB
0003
FFFE
0006
FFFF
0001
FFFC
FFFC
FFFB
0000
FFFC
FFFF
0003
0009
FFFA
FFFB
0001
000D
FFFC
0001
FFFE
0000
FFFF
FFFA
0006
0002
FFF7
0003
0004
FFFE
0007
0007
0005
0003
0009
FFFC
FFFE
FFF7
FFFC
FFFE
0000
0007
FFF5
FFFD
000A
0001
FFFF
FFFE
0002
0005
FFFF
0008
0002
0001
0003
FFFD
0000
0001
0000
0002
FFF6
FFFB
FFFE
0003
FFFE
0009
FFFB
FFFF
FFF7
FFFE
0003
FFFF
0000
FFFB
0001
FFFB
FFF2
FFF6
FFFF
0005
0005
0001
0004
0000
0002
0003
FFFE
000A
FFFC
0003
FFFF
0004
0005
FFFA
FFFB
0001
FFF9
0004
FFF8
0000
0002
FFFF
0000
0002
0000
0009
000D
0000
FFF9
0002
0003
0006
0000
000D
0000
0002
FFFF
0000
FFFF
FFF8
0005
0002
0005
0000
FFF9
FFFE
FFFE
FFF7
FFFA
0010
0000
0001
0001
0007
0001
FFFD
0000
FFF7
0003
0003
FFF5
FFFC
0002
0001
FFFD
FFFD
0006
FFFB
FFFC
0003
FFFC
0007
000C
0000
FFFA
0008
FFFB
FFFF
0002
0008
0004
FFFA
0003
0000
FFFD
FFFA
0007
0006
0001
0003
FFF6
FFFD
FFFF
FFFF
0004
FFFE
0004
0009
0003
FFFC
000A
FFF8
0008
FFFF
0001
FFFE
FFFD
0001
0008
FFFE
0000
FFFE
FFFD
FFFD
FFFF
0002
000A
0001
0003
0004
0004
FFFF
0001
0002
0010
0007
FFFD
0004
FFFA
0008
FFFA
000B
FFFB
0001
FFFB
FFF3
FFFB
FFF6
FFFD
FFFE
FFFB
000E
FFF8
FFFB
FFF2
0007
FFF4
FFFC
0007
0011
FFFC
FFFC
0002
0004
0007
0001
FFFE
000A
FFFB
0006
FFF8
FFFD
FFFA
0001
FFF7
0002
FFF2
FFF9
FFF9
FFFA
FFFD
0001
FFFF
0007
FFF8
FFFE
FFF8
0001
FFFF
0003
FFF8
0009
FFFC
FFFD
0000
0009
0004
0000
FFFF
0008
FFFD
0001
FFFA
0003
FFFB
FFFD
FFF7
0000
FFFE
FFFD
0001
FFFC
FFFD
0002
FFF9
FFFF
FFF9
0000
FFFD
0000
FFFD
000A
FFFA
FFFD
0007
FFFD
FFFF
FFFE
FFFD
0001
0003
FFF4
FFFD
0008
FFFF
0004
0000
FFF4
0004
FFFE
FFFE
FFFE
FFEF
0003
0007
0003
FFF6
0004
FFFC
0004
FFFE
FFFA
FFFC
0001
0009
000A
FFFE
FFFA
0002
0002
FFFF
0002
0007
000B
FFFB
0003
FFFD
FFFB
0000
000C
FFFE
0001
FFFE
0001
FFFD
FFF9
0004
0000
0007
0010
FFFD
FFFF
FFFE
000A
0001
0007
0004
FFFE
FFFD
0000
0001
FFFE
0004
FFFF
0000
FFFB
FFFC
0004
FFFE
FFF7
0002
FFFE
FFFE
0000
FFFB
0000
FFFD
0002
FFFF
FFFE
FFFE
0006
0006
FFFE
FFF8
000A
FFF8
0005
FFFB
FFFF
FFFF
0000
0003
FFFD
0001
0002
FFFE
FFFD
0003
0006
FFFA
FFF7
FFFF
0000
FFFB
0001
0000
0000
0009
0008
FFFA
FFFE
FFFC
FFF4
0009
0001
0002
FFFB
0005
FFFE
0003
FFFD
FFFC
0002
0000
0001
0000
FFFD
FFFC
0003
FFFC
0001
0000
0009
0003
FFFA
FFFF
FFFC
0003
FFFE
FFED
FFFA
0008
FFFF
0002
0006
FFF4
0002
FFFE
FFFC
FFFA
FFFD
000A
0003
FFFF
FFFD
FFFF
0005
000C
0003
0002
0013
0001
0003
0000
0006
FFFA
0004
0003
FFFE
FFF6
FFFA
000A
0004
0001
0004
0001
FFFD
0001
0002
000A
FFFD
0003
FFFC
FFF7
FFFC
0008
0004
FFFB
FFFF
0002
FFF8
0001
FFFC
FFF9
FFF9
0000
0002
0000
FFF7
0001
FFF8
0001
0003
FFFC
0002
FFF3
FFFE
0005
FFFA
FFFE
FFFD
FFFE
FFFA
0002
FFF9
000B
FFFE
FFFC
FFFE
0002
FFFD
FFF9
0005
0004
0006
0001
FFFB
FFFC
0005
FFFC
0008
FFFC
0003
FFFC
FFFB
0004
0006
0000
0003
FFFF
FFFA
0003
0006
0001
FFF9
0004
0000
FFF7
FFFD
FFFD
0001
0001
FFF9
FFFF
FFFC
0000
FFF8
FFF9
FFFD
FFFF
0005
0004
0005
0003
FFFA
0006
0002
0008
0001
FFFA
0001
FFF0
FFFB
0009
0002
0001
0001
FFFD
FFFC
FFF1
FFF9
000B
0005
FFFB
FFFF
FFFA
FFF9
FFF2
FFF2
0004
0000
000A
0006
0008
FFF4
000E
FFFB
0006
000E
0001
FFFA
0004
0006
FFFE
000B
0000
0006
FFFE
0007
FFFE
FFFC
FFF8
0000
FFF4
0002
FFFF
FFF9
FFFD
FFF5
FFF2
FFF7
FFF8
0001
0000
FFF4
0007
FFF4
FFFC
0009
0000
0002
0004
0003
FFFE
0005
FFFB
FFF7
0003
0008
FFFC
FFF7
FFFC
0004
FFFA
FFFC
001A
FFFF
FFFD
0006
0002
0000
FFFF
0000
FFFF
FFFF
0011
000B
FFFE
FFFB
0005
FFFC
0001
0002
0006
0003
FFFE
FFFF
FFFB
FFF7
0006
0002
0004
0002
0009
0001
FFFD
FFFE
FFFC
0001
FFFF
FFFA
FFFD
FFF7
0003
0001
FFF4
FFFB
FFFF
0002
0000
FFFF
FFFF
FFFC
FFFE
0000
FFFE
FFFD
FFFC
0000
FFF6
0007
FFFA
0004
FFFB
0002
FFFE
FFFF
FFFD
0007
FFFE
FFFF
FFFA
FFFB
0000
0003
0004
FFF7
FFFB
FFFB
FFFF
FFFF
0000
0000
FFFE
FFFD
FFFE
FFFB
0003
0004
0000
0000
FFFB
FFFD
0001
000B
FFFF
0002
FFF5
FFFF
FFF1
FFFF
0004
FFFE
0001
FFFC
FFFC
FFFB
FFF7
FFE7
FFF6
FFFB
0003
0005
0003
FFEF
000C
FFFC
0001
FFFC
0004
FFFF
FFF9
0000
0006
0005
FFF5
FFF2
0003
FFFE
FFF8
FFFE
0010
0008
FFFA
0000
0005
0000
0005
000B
0007
0011
0008
0003
FFF5
0003
FFFB
0010
FFF6
FFFE
FFFF
FFFF
0003
0001
FFFC
FFFF
FFF5
FFFA
0004
0008
FFFC
0009
0001
0002
FFF6
0004
0004
FFFD
FFFE
FFFD
0001
FFFE
0004
FFFA
FFFD
0003
FFFE
0003
FFFE
FFFC
0001
FFF9
FFFC
FFFE
FFFE
0002
0004
FFFE
000B
0002
0003
FFF9
0003
0004
FFF9
FFFF
000C
0005
FFFE
FFFC
FFFD
0002
FFFD
0000
0008
000F
0003
0002
FFFE
FFFD
FFFA
000C
FFFC
0003
FFFE
FFF9
0006
0004
0006
FFFD
FFFE
FFF4
FFFF
FFF9
0000
0005
0008
0003
FFF8
0005
FFF3
FFFC
FFFD
FFF6
0008
0002
FFFC
FFFE
FFFE
000D
FFF4
FFF0
0000
FFFC
FFF7
FFFD
FFFD
0006
0011
0006
FFFE
FFFD
0006
FFF5
FFFC
FFFF
0005
000B
0008
FFFD
FFFC
0005
FFFB
0001
FFFF
FFFB
0004
FFFE
0004
0000
FFFC
0008
0000
FFF8
FFFE
0003
FFF5
0000
FFFB
000A
FFFE
0004
FFFA
0003
0006
FFFD
0002
FFFC
0004
0005
0006
FFFF
0011
FFFB
FFFB
0000
FFFE
0001
0004
0001
0013
000E
0007
0000
0001
FFF7
FFFE
000D
FFF8
0004
FFFB
FFFD
0004
FFFD
FFFB
0005
FFFF
FFFA
0005
0000
0005
0002
0009
0004
0002
FFFF
0000
0003
0000
FFFD
FFFC
FFFE
0003
FFFA
0000
FFFF
FFFA
FFFC
0006
FFFE
FFFF
0001
FFFF
0002
FFFA
0000
FFFF
0006
FFF4
0001
FFFC
0009
FFFB
0000
0000
0002
FFFC
FFF6
0007
0002
FFFB
0005
0000
FFFD
FFF6
0002
FFF7
FFFD
000B
FFFB
0001
FFFF
0004
0004
FFFD
FFFC
000C
0000
FFFF
FFFE
FFFD
FFF9
0007
FFF4
FFFE
0005
0002
FFFD
0003
0001
FFEE
0002
0000
FFFE
FFF9
0004
0009
FFFC
0005
FFFF
FFFB
0002
FFFC
0001
0001
0003
0003
0005
000A
0004
FFFD
FFFD
0005
FFF9
0000
FFF4
0009
0007
0002
0003
0004
FFFD
FFF3
0001
FFFE
FFFC
FFFF
0003
000B
0002
000C
0002
FFFD
0002
FFFD
0000
FFFF
FFFD
FFFB
0003
FFFE
FFF8
FFFC
0001
0004
0001
FFF7
FFFC
FFF8
0006
FFF4
0008
FFFE
0004
FFFA
0001
FFFC
FFFB
0003
0002
0003
000F
0006
0001
FFEF
FFF5
FFFB
0004
FFFA
0004
FFFB
FFFB
0001
0003
0003
0006
FFFF
FFFB
0005
0002
0006
FFFA
0006
0000
0001
0003
0005
FFFC
0000
0009
0008
0000
0006
0003
FFFA
0000
000B
0008
0002
0000
FFFC
FFFD
0005
0002
FFFE
FFF8
FFFE
FFFE
0000
0004
FFF2
FFFC
FFF7
FFF8
FFF6
0007
000C
0007
0002
FFFC
0003
0005
0004
0003
0005
0010
000D
0000
FFEE
FFF8
FFF7
0008
FFF4
0002
FFF3
FFF9
0002
FFFE
0000
0000
0003
FFFE
FFFE
000C
0005
0007
0004
0000
FFFD
FFFD
FFFC
0005
FFFE
FFFE
FFFC
FFFF
0002
FFF0
FFFC
FFFB
FFFE
0005
0000
FFFD
0005
FFF7
0006
0001
FFFB
FFFD
FFFD
0004
0004
0008
FFF8
0001
FFF9
0003
FFFA
FFFF
0005
0002
FFFD
FFFF
FFFD
FFFD
000A
0006
FFFE
0006
FFFE
0001
FFF8
FFFD
0000
000C
FFF7
FFFF
FFFA
FFFF
FFFC
0002
FFF4
FFF7
000D
FFFD
FFFF
FFF6
FFFD
0002
FFF6
0000
000B
FFFD
FFFE
FFFB
0003
0002
000A
0008
000D
0006
0005
0005
0002
FFFC
FFFD
0008
0001
0006
FFFE
FFFA
FFF4
0005
FFFE
0000
0006
0000
0004
0008
FFF2
0001
FFFF
FFF9
0002
FFFF
000C
FFFA
FFFE
0002
FFFF
FFFC
FFFE
0005
FFFA
0008
0003
0002
FFF9
0000
0002
0001
0001
FFFA
0007
0004
FFF7
FFFB
0001
FFF9
000C
FFFE
0004
FFFA
0007
FFFF
FFFB
0002
0000
FFFF
0001
0000
FFF4
FFFD
0005
FFFC
FFFB
FFF6
0005
0003
0006
0003
0004
FFFA
FFFF
000A
FFFD
FFFE
000C
0004
FFFB
0006
0000
0000
FFF5
0002
FFF7
FFFA
FFFF
0007
FFFC
0000
0004
FFFD
0006
0001
FFF8
FFF8
0003
0007
FFFD
0002
0002
FFFB
FFFC
0003
FFFB
0002
000C
0004
0000
0006
0000
0000
0001
0009
0000
FFFD
0007
0005
FFFF
FFFA
000C
0002
FFFE
0009
FFF6
FFFD
0005
0003
FFFD
FFFA
0011
0015
FFFF
FFFB
0008
FFFC
0008
FFFF
FFF7
FFFD
FFFA
0001
0003
FFFD
FFF9
FFFA
FFFE
FFF2
FFFF
0003
0009
0003
000A
FFFF
0005
000E
0009
0006
0008
000A
0006
0008
0004
000D
FFFE
0008
FFFA
0005
0000
FFF1
0007
FFFC
FFFC
0007
0000
FFFE
FFFE
0004
0006
FFFB
0005
0000
FFFB
0000
0010
0003
FFFC
0008
0001
FFF9
0001
000B
FFF9
FFFA
000E
000B
0003
FFFF
0008
FFFB
0004
FFFD
0008
FFFD
FFFB
FFFB
FFFE
FFF9
0001
FFFD
0007
0003
0004
0002
0001
FFFE
0004
0001
0000
0006
FFFF
FFFF
0009
0003
FFFF
FFFF
FFF5
0006
0002
0002
FFFF
FFF9
0002
FFFE
0001
0003
0001
0001
FFF8
0002
0004
0002
0002
FFF9
FFFF
FFF8
FFFD
FFF5
0002
FFFE
0001
0001
0001
0000
FFF9
0000
FFFE
FFFC
0004
0002
0000
0005
000B
FFFB
0008
0002
FFFA
0007
000C
0006
FFFA
0005
0000
0008
FFFA
FFFF
0002
0000
0003
FFFF
0008
FFF3
FFF8
0003
0000
FFFE
FFF8
FFFD
FFF7
FFFF
FFFF
0007
FFF5
FFFD
FFFE
000A
FFFA
FFFB
FFFF
0004
0007
0000
0009
FFFE
FFFD
0000
FFFB
0005
FFFE
FFFC
FFFF
FFF9
FFF9
0003
FFFA
FFFD
FFF8
0000
000B
FFFB
FFFD
0004
FFF6
0005
0000
0001
FFF9
0003
FFFE
FFF9
FFFE
FFF9
0002
0008
0002
000B
FFF6
0002
FFF6
0009
FFEF
0005
0004
FFFC
FFF7
0000
0003
FFFD
FFF8
0004
FFFB
0011
0000
FFFC
0000
FFEE
FFF9
0000
FFF5
0002
FFFF
FFFD
0003
FFFF
0004
0008
FFFD
0006
0000
0008
FFFC
0006
FFF2
0006
0004
FFF8
FFFE
FFFD
0002
0007
0005
0002
FFFA
FFFC
0005
0001
FFFA
0003
FFFC
0002
0007
0002
0005
FFFD
FFFD
FFF8
FFFB
FFFD
FFF7
FFF8
FFFA
FFFE
0001
FFFD
0001
FFF8
0008
0004
0004
0004
0007
0009
000F
0000
FFFD
0008
0008
000B
0005
0004
0003
000E
FFFD
FFFA
0003
0003
0003
FFF7
FFFC
FFFE
0004
0007
0000
FFFC
FFFB
0003
FFFE
0003
0005
FFFB
FFF7
0002
0008
FFFB
FFFC
0002
0005
0002
0007
0005
0004
0001
FFFB
0003
FFFB
FFFC
0002
FFFF
000E
FFFE
FFF1
0004
0006
0000
0005
0006
0000
FFF6
0006
0003
FFF8
FFF8
0000
0001
0003
0001
FFFA
FFFB
0005
FFF8
FFFA
FFFD
0001
0007
0001
FFF4
0009
FFFB
0007
FFFA
FFF4
FFFB
0007
FFF8
FFFF
0000
FFF1
FFF6
FFFD
0000
FFF6
0000
0006
0007
FFF6
0003
0009
0006
0007
0006
0007
000A
0003
0005
FFF4
FFFC
FFFB
000C
FFF2
FFFE
0001
0002
0003
0002
FFFB
FFFC
FFFE
0004
0005
0002
FFFE
0005
FFFB
0002
0001
FFFD
FFF9
FFFE
0002
FFFB
FFFF
FFFF
0005
0007
0007
0002
0000
FFFD
0003
0002
0001
0001
0003
FFFF
0002
0000
FFFE
0007
FFF5
0004
0000
0004
FFFD
000A
0008
0003
FFF7
FFF9
FFFF
FFFD
FFFC
0004
0002
FFF5
0002
FFFE
FFFA
0001
FFFA
FFFC
0003
FFF9
0004
0004
0000
0000
0002
FFFB
FFFF
0005
FFFC
0009
FFFE
FFFC
0003
0006
0000
0004
0000
0000
0001
0003
FFFF
0000
0000
0002
0001
0003
000A
FFFF
0006
0006
FFFF
0006
0003
0000
0003
0003
0001
0006
000A
0004
FFFD
FFFB
0000
FFF8
0000
FFFF
0000
FFFE
0003
0002
FFFE
FFFB
0000
0000
FFFF
FFFF
0004
0002
FFF7
FFFE
0002
0003
FFFE
0003
FFF8
0007
FFFC
FFFF
FFFF
FFF9
0007
FFFB
FFFC
0000
FFFC
FFF9
0003
000A
FFF2
0000
0003
0006
FFFC
FFFC
0002
0003
0008
0004
0004
FFF9
0001
0006
FFFD
FFFB
FFFD
0001
FFFD
0003
FFFD
FFFC
0000
0002
0001
0003
FFFE
FFFB
FFFB
0004
0004
FFF7
0000
FFFE
0001
0002
0001
0000
FFFE
0008
000A
0003
0000
0001
FFFA
FFFE
FFF7
000E
FFFC
0005
FFF8
0003
0001
FFF6
0005
0003
FFFD
0007
0002
FFFD
000B
0008
0003
FFFC
0002
FFFC
FFFB
FFF5
0011
FFFB
FFF5
0003
FFF9
FFF7
0002
FFFD
FFFA
FFF8
000F
0011
0003
FFFB
0007
0003
FFFF
FFFF
FFF3
FFFE
0004
FFF9
0008
000B
FFF1
FFFC
FFFB
0003
FFF5
0006
0008
0011
FFF1
FFFC
0003
FFF7
000D
000C
0012
000A
0008
0001
FFEF
FFF7
FFF5
000C
FFEA
0007
FFF9
FFF5
FFFA
FFF6
000B
FFFF
0007
0002
FFF8
0002
FFFF
0006
FFF6
0000
0008
000C
FFF6
0000
FFFE
0000
0013
0003
FFFE
000A
FFFF
0008
FFF9
FFF7
FFF8
0005
FFF0
0009
FFFB
FFFE
FFF0
FFF9
0004
FFF7
0007
000A
FFEF
FFFE
FFFB
0000
FFF8
0005
0010
000E
FFFC
FFFE
0002
0002
000E
000A
0006
0014
0006
0004
FFF2
FFF5
FFFC
0010
FFF1
0003
FFFE
FFF4
FFFD
FFFE
0001
FFFC
FFFA
0003
FFFE
FFFC
FFFE
0009
FFFF
0001
FFFD
FFFF
0001
0002
FFFE
0001
0001
FFFF
FFFF
0005
0009
0000
0002
FFFC
0000
0001
FFFE
FFFE
0000
0002
FFF9
0002
0000
0002
FFFF
FFFE
FFFF
FFFC
FFFB
0007
FFFF
FFFA
0003
FFFB
0001
FFFF
0004
0007
0000
0004
FFFF
0002
0005
0009
0000
000B
0000
000B
FFFC
0002
0000
FFF5
FFFE
0002
0005
FFFD
FFFB
0004
FFFD
0000
FFFD
0012
FFF9
0002
0008
0006
FFFF
FFFC
0002
FFF7
0006
FFFE
FFF5
0003
0005
0004
0000
FFF4
FFFF
0004
0000
0006
FFFE
FFFE
000C
0000
FFF6
FFFF
FFFE
FFFF
0003
0009
0005
0002
0002
FFFB
FFFF
FFF8
0009
0008
0005
000D
FFFD
0002
FFFF
0002
0001
0002
0005
0008
0001
0002
0008
FFF7
0008
0004
0009
FFFD
FFFB
0000
0008
0005
FFFB
0004
FFFD
FFF9
FFFD
FFFD
0002
FFFE
0003
FFFB
0003
0004
FFFF
0001
0002
0003
0001
FFFB
0002
0003
FFFC
0009
FFFA
0000
FFF9
FFF2
FFFA
FFFD
0008
FFFC
FFFC
0009
FFF9
FFF8
FFF5
000A
FFF1
FFFF
0007
000E
FFFD
FFFB
FFFD
0000
000E
0005
FFFC
000B
FFFB
0003
FFF3
FFF7
FFFA
0003
FFF6
0009
FFFB
FFFB
FFFA
FFF5
0005
FFFB
FFFA
0003
FFFD
FFF2
0005
0008
FFF5
000A
0005
000D
0001
FFFB
0001
0000
0005
0003
0000
0005
0003
FFFE
FFF9
0003
FFF7
0003
FFF8
FFFF
FFFE
FFFE
0003
0001
FFFF
FFF8
FFFE
0001
FFFA
FFF8
0000
0003
0003
FFFD
0001
0001
0000
0008
0006
0002
0001
0003
000B
FFFA
FFFF
000A
0003
0003
0004
0004
FFFF
FFFD
0008
0006
FFFE
FFFD
FFFC
0005
FFF9
0000
0002
0002
FFFE
FFFC
0005
0002
FFFA
0001
0005
FFFD
0005
FFF7
0004
FFFD
FFFA
FFFE
FFFC
0009
0005
FFF8
0002
FFFD
FFFF
FFFB
0005
0003
FFFF
FFFE
FFFF
FFFF
0001
0004
0004
FFFB
FFFC
0006
0006
0002
FFFF
0000
FFFA
0004
0000
0005
0009
0004
FFF6
FFFF
0008
0004
FFFF
FFFD
0001
FFFB
FFF9
FFFF
FFFF
0000
0001
0004
0005
0002
0006
FFFB
0005
FFFD
FFFB
0005
0000
0000
0002
0001
FFF9
0002
0006
0004
000B
0000
FFFC
FFFA
0003
0004
FFF7
FFF8
0001
FFFE
0000
FFFD
0001
FFFE
000E
0002
0003
0002
0003
0000
0006
0005
FFFD
0002
FFFE
FFFB
0005
FFFD
0002
0002
FFFE
FFFF
FFF7
FFFC
000A
0003
0003
FFFF
0003
000B
0001
0007
FFFB
FFFF
0003
FFFD
FFF9
FFFF
0006
0002
0003
FFFC
FFFE
000B
FFF9
0002
FFFE
0000
FFFE
0002
0003
0000
FFFF
0005
0008
FFFE
0003
0004
FFFC
FFFB
0003
FFFE
FFFE
FFFC
FFFE
FFFF
0005
FFF9
0005
0000
0001
FFFA
FFFE
FFF9
0000
FFF8
0005
FFFE
FFF8
FFF9
0001
0000
0003
0005
FFFC
FFFD
0001
FFFE
0002
FFF9
FFF8
FFFF
FFF7
0007
0002
FFFF
FFFE
FFF8
FFFF
FFFF
0006
0004
FFFD
0004
0003
0002
FFF6
0000
FFFF
0000
0003
FFFA
FFFE
0002
0005
FFFD
FFFE
0001
0004
FFFD
0004
0003
000A
0001
0006
0003
FFFE
0003
0000
0007
FFFB
FFFD
0005
0001
0003
0003
0008
0004
FFF8
0005
FFF9
0003
FFFA
0003
0003
0002
FFFB
FFFD
FFFB
FFFF
0005
FFFE
FFFC
0007
FFFF
0003
0000
FFFC
FFFB
0005
FFFE
0002
FFFA
FFFD
0002
FFFE
FFF1
FFFA
FFFE
0004
FFFC
FFFB
000C
0002
0005
FFFA
0001
FFF7
FFFA
000F
0003
0000
0001
0000
FFFA
FFFE
0003
0003
FFFC
0009
000D
0004
000A
FFF0
000F
000C
FFFE
FFFA
0002
FFFD
0001
0004
FFF8
FFFE
FFF9
FFFE
0000
FFFC
FFFB
FFF9
FFF3
0004
0002
FFFA
0009
0001
FFF9
FFF5
0003
0006
FFFF
FFF5
0001
FFFB
FFFF
FFFF
0001
0002
0003
FFFC
FFFA
0001
FFFE
0006
0003
000A
0003
0001
0004
0001
FFFA
FFFD
000D
0003
0005
000F
FFFB
0001
FFFE
FFFA
FFFB
0003
0006
0001
0007
FFFA
000C
FFFE
0005
0000
0000
0001
FFFD
0000
000B
0003
FFFC
FFFC
FFFD
FFFA
0005
FFFE
0002
0000
0005
FFFE
FFFD
FFF9
FFFE
FFFF
FFFD
0006
FFF8
0002
0002
FFFE
FFFA
FFFD
FFFA
FFFD
FFFB
0002
FFF1
0004
FFFA
0004
FFF7
000A
FFFB
FFFE
FFF5
FFFF
FFFF
0003
0003
0003
0001
0001
FFFC
0003
0003
0001
0009
0007
0005
0005
FFF9
FFFD
FFFE
0000
FFF9
0004
FFFC
FFFA
0002
FFFC
FFFC
FFFA
FFFE
0005
0001
FFFD
FFFF
FFFA
FFF9
0007
0001
FFFC
FFFB
0008
0005
0008
0003
0008
0006
FFF3
0001
0003
FFFA
0003
0003
0001
0003
FFFE
0006
0000
FFFC
0002
0004
0003
0001
FFFF
FFFB
FFFE
FFFF
0003
FFF8
FFFB
000D
0005
0000
FFF7
FFFE
0003
FFFC
0002
0004
000C
FFFB
0002
FFF9
0008
FFF4
0007
FFFA
0005
FFFB
FFFB
FFF9
0000
0001
FFFF
FFF6
FFFE
0005
FFF7
0000
0007
FFFA
FFFE
0003
0003
FFF2
FFFE
0006
000B
000A
0004
0002
0008
0002
0007
FFF6
0000
FFFB
0001
FFFA
FFFF
0003
FFFF
0003
0006
0006
0000
0001
FFFC
0008
0004
0002
0000
0000
FFFD
FFFF
0007
FFFD
FFFF
0002
FFF9
0002
FFFD
0008
000C
FFF8
0008
0000
FFFA
0000
0008
0005
0006
0003
FFF9
000C
0009
FFFA
FFFB
0009
0000
FFFB
FFF5
0002
0003
0000
0007
0007
FFFF
FFF2
FFFE
FFFE
FFFC
0003
000A
0008
0005
0000
000E
FFF4
FFF8
FFFA
0002
FFF3
0001
FFFE
0000
000B
0007
0003
FFFC
000C
FFFF
FFFC
FFF9
0001
0008
0001
0001
000B
0000
FFF0
FFFD
FFFB
FFFA
FFF8
0005
000E
000B
FFFD
0009
0004
FFF5
FFFC
0003
FFF1
0006
FFFF
FFFD
0009
0006
0001
FFFF
0001
FFFE
0004
FFFD
0007
0001
000D
FFFA
0005
0002
0002
FFFE
0003
FFFA
0001
FFFC
0007
0002
0005
000C
0000
FFFE
FFFD
0004
FFFB
0005
FFFE
FFFD
0003
FFF6
0001
0004
FFFF
FFFA
0003
0001
FFFE
0008
0004
0001
0005
0003
0003
0003
0003
FFFD
FFFE
0004
000B
FFFA
0001
0000
FFF8
FFFD
0006
0003
0000
0002
FFFF
FFFD
FFFE
0006
FFFD
0001
FFF7
000A
FFFA
0008
FFF2
FFFF
FFFD
FFFB
0000
FFF6
0009
FFFE
FFFF
000A
0001
0000
FFF5
0006
FFF4
FFFB
0001
0002
FFFB
FFFE
0003
0005
FFFD
FFFC
0007
FFFF
FFFB
0003
0003
FFFB
0008
FFF8
0003
0003
0004
0003
0001
FFFF
FFF5
0001
0003
0001
0005
0004
000C
0003
0005
0006
FFFD
0008
FFFB
0003
FFFF
0007
FFFE
FFFE
0007
0002
0002
0004
0005
FFF9
0000
FFF4
0004
0003
0008
0003
0005
0001
FFF4
FFFE
0001
FFFA
0002
0000
000C
0009
000D
0003
FFFB
0005
0002
0003
FFFF
0004
0001
0001
FFFB
FFFD
0005
FFFE
000A
0001
FFF5
FFF7
0001
0003
FFED
0008
FFFE
0006
FFFB
FFFD
FFFF
FFFA
000B
0007
0006
0006
0009
0007
FFF5
FFFB
FFF8
0003
FFFD
0000
FFFA
FFF6
FFFB
FFFB
FFFD
FFFF
0008
0004
0006
0005
FFFE
FFFD
0000
FFFE
FFFF
0004
0004
0000
FFFD
0006
FFFE
FFFA
0007
0006
FFF6
FFFE
0011
000A
0003
0005
0005
FFFF
0004
0001
FFEC
FFF5
0008
FFF9
0004
000A
FFF0
FFF2
FFFC
0004
FFED
0000
000F
000A
FFFA
FFFB
0004
0004
000B
0007
0004
000A
000D
FFFF
FFEE
FFFE
FFF9
0008
FFF1
0006
FFF4
FFFB
0004
0006
FFFB
0008
FFFB
0000
FFFE
0002
FFFF
0008
0000
0004
FFFF
FFFA
FFFA
0001
FFFE
FFFD
FFFD
0000
0009
FFF6
0004
FFFD
FFFC
0005
FFFF
0000
0003
FFFC
0004
0001
0004
0004
0003
0003
0000
FFFD
000B
0005
0005
0006
000B
FFFD
FFFA
FFF8
0007
FFFD
FFF9
FFFE
FFFC
FFFA
0003
FFFF
FFF6
FFFB
0009
0007
FFFE
0000
0009
0000
0001
FFFF
0002
0008
0005
0004
0005
0008
0002
0005
0001
0007
FFF8
0002
000F
0006
0003
0000
FFFA
FFF7
FFFE
FFFE
FFFA
0002
0000
FFFE
FFFB
FFF3
FFF9
0002
FFFD
0009
FFFA
FFFE
0003
0004
FFFD
0003
0003
0000
0001
0004
000A
0004
0011
0001
FFFF
0002
0000
0000
FFFD
FFFD
FFF8
FFF9
FFF9
FFFC
FFF9
FFFF
0001
0003
0001
FFFF
0003
0002
0000
0003
FFFB
0003
0004
FFFD
0005
0003
0001
FFFB
FFFB
0002
FFFD
0001
FFFF
0005
0009
FFFD
FFFF
FFF5
FFFD
0003
000A
0003
FFF9
FFFF
FFFE
FFFA
FFFB
FFFA
0000
0000
FFFD
FFFD
FFFD
FFFC
000A
FFFD
0001
0000
FFFE
FFFE
FFFA
0004
FFF7
FFFC
0008
0000
0001
FFFC
0000
0007
000A
FFFE
FFFA
FFFC
0003
FFFF
0004
FFFF
FFFD
FFFE
FFFF
0002
FFFC
FFF8
0003
FFFC
FFF8
0001
0002
FFFE
FFFB
0007
FFFF
FFFF
0003
0001
FFFC
0000
000E
FFFF
FFFD
000A
FFF7
FFFE
0004
0001
0004
0000
000B
0007
FFFF
0001
0006
FFFF
FFFF
FFFE
FFFB
FFFA
0003
0007
0001
0005
FFFB
0000
FFFA
FFF8
0004
0002
0003
FFFD
000C
FFFE
0002
000B
0001
0000
0009
0005
0005
0009
0001
000E
FFFE
0001
FFFF
0005
0002
FFF6
0000
FFFC
FFF9
FFFE
FFFD
0002
0000
000A
0001
FFFF
0005
FFFF
FFFA
0003
000A
0005
FFFF
0006
FFFD
0005
0000
0005
FFFD
FFFC
0005
000B
FFFE
FFFF
0009
FFFE
FFFF
FFFB
0001
0004
FFFC
FFFE
0000
0000
FFFF
0000
0004
FFFC
0007
0006
0005
FFFE
0007
FFFC
FFFC
FFFD
0003
0000
0001
0004
FFFA
0001
FFFC
FFFB
0001
FFFD
0000
0000
0001
0002
0006
FFF4
0004
FFF3
FFFB
FFFA
FFF5
FFF9
0005
FFFD
0009
FFF6
0002
FFF7
FFF2
000A
0005
0006
0004
000E
0000
0000
FFFF
0007
0000
0005
000C
000A
0010
FFF6
000A
0006
FFFB
0003
0000
0003
FFFB
0004
0003
0008
FFFA
FFFC
0003
0002
FFFC
FFFF
0006
FFF9
FFFD
FFFD
0005
FFFE
FFF5
FFFA
FFF5
0001
FFFF
000C
FFFE
FFF9
FFFE
0002
FFFE
FFFB
0004
0004
0003
0005
0002
0005
0004
0008
FFFF
0008
0000
0002
FFFB
0002
0005
FFFC
FFFA
FFF8
FFFC
FFFA
0005
FFF9
FFF9
FFFA
FFFF
0000
0002
FFFB
FFFD
0004
FFF9
FFFC
0007
FFF4
FFFC
FFF9
FFFC
FFED
FFF7
FFFF
0001
0004
0005
FFFB
FFF8
0001
FFFF
0001
000A
FFFF
000C
000A
FFFD
FFF7
0008
000E
FFFF
FFFF
0003
0005
0007
FFF7
000D
0006
0007
FFF7
FFFC
0004
FFFB
FFF3
FFFD
FFFF
0000
0004
FFFE
FFFC
FFF9
0000
0006
0001
0005
FFFB
0008
0004
0005
FFF7
FFFE
000A
FFF7
0009
0001
000A
0000
0001
0003
0001
0001
FFFD
FFFE
0004
FFF5
0008
0001
0008
FFFB
000A
0002
0003
000A
FFFA
FFFB
0001
0007
FFFE
FFFD
0002
FFEE
0007
000A
FFFE
0003
0003
0009
0001
FFFF
0000
000A
0008
000B
FFF3
FFF3
FFF9
FFF9
FFF5
0004
FFFD
0007
FFFA
000B
FFFF
FFF7
0001
FFFA
0000
0008
FFF6
000B
FFFD
FFFC
0002
0002
0006
0007
0004
FFFD
0002
0008
FFF8
0004
0005
000D
FFFD
FFF0
FFFE
0005
0003
0000
FFFE
0007
0008
000C
0005
FFFB
FFFF
FFFE
0004
0003
0000
0006
FFFE
0006
FFFD
0006
FFFF
FFFF
FFFF
0001
0002
0007
FFF8
0000
0002
FFFD
0001
FFFF
FFFC
FFFB
0000
FFFD
FFFC
FFFE
0007
FFF9
0005
0006
0001
0000
FFFD
0004
0003
0004
FFFF
FFFE
FFFD
FFFC
0000
FFFD
FFFB
FFFF
FFFD
FFF8
FFFE
0003
0007
FFFC
0000
FFFF
FFFD
0005
FFFE
FFFF
0003
FFFD
FFFB
FFFA
0000
0002
0003
FFFF
FFFE
0000
0003
0005
FFFA
0005
0001
0001
0002
0002
0003
0000
FFFF
0005
FFFC
FFFF
0001
FFFC
FFFE
0007
0006
FFFF
0007
0003
FFFE
FFFC
0002
0003
0005
0006
0002
FFFE
0001
FFFD
FFFC
0002
FFFF
FFFF
FFF5
0000
0007
FFF6
FFF7
FFFF
0002
0001
FFFF
FFFC
FFFF
0003
0000
FFFD
0005
0001
0001
0004
0002
FFFD
0004
FFFD
0009
FFF8
FFF7
0001
FFF9
0000
FFF6
0000
0002
0004
FFFD
0002
0000
FFFC
0004
FFF9
FFFC
FFFA
FFFD
FFFD
FFFD
0001
0001
0007
0004
FFFD
FFFE
0001
FFFA
0009
0003
0003
FFFD
FFFE
0001
0009
FFFB
0002
0007
0000
FFFE
0003
0000
FFFB
0003
0008
0004
0002
FFFC
0005
0000
0007
0004
0008
0003
0000
FFFE
FFFC
FFFC
0003
0000
0004
0002
FFF9
FFFE
FFFF
0000
FFFA
0001
FFFB
FFFF
FFFF
FFFE
FFFA
FFFE
FFF6
0000
FFFA
FFFC
0004
FFF3
0002
FFFE
0000
0005
0003
0002
FFFC
0000
0002
FFFB
0006
0004
0002
FFFD
0007
FFFF
FFF9
FFFF
0001
0002
FFFF
0004
FFFF
0003
0007
0002
0003
0002
0000
000D
0004
0004
FFFF
0004
0006
FFFC
FFF9
0000
0003
FFF9
0008
0004
0003
FFF5
FFFC
FFFC
FFFA
FFFB
0002
0004
0006
FFFA
0003
0002
0008
FFFD
0007
000A
0006
0004
FFFD
FFFE
FFFE
0005
FFF9
0009
FFFD
FFF7
0006
0001
0003
FFFC
0002
FFFA
0000
0001
0002
FFFC
0006
FFFF
FFF6
FFF4
0007
0005
0000
FFFA
FFFB
0003
0003
FFF0
0001
0001
0009
0010
0004
FFFD
0005
FFFC
0006
0008
0005
FFF7
FFFB
FFFC
FFFA
FFFE
FFFE
0005
0005
FFFD
0002
0001
FFF9
FFFD
0003
0001
FFF9
0001
FFFC
FFFC
FFFD
FFFA
FFF4
FFFB
0003
000B
0002
FFF4
0009
FFF8
0004
FFFF
0003
FFFD
FFFE
FFFF
0000
FFF9
FFFE
0009
0003
FFFA
0009
0001
FFF9
FFFC
0006
0007
0001
0007
FFFE
FFFF
FFFA
FFFC
0003
FFFE
0007
000D
0002
FFFA
0006
FFFA
000A
0002
FFF9
FFFB
FFFF
FFFE
FFFE
FFFB
FFFF
FFFD
FFF8
0007
0000
FFFC
000A
0000
0000
FFFB
FFFF
0005
0007
FFFD
0002
0004
0006
0004
0000
FFFD
FFFE
000A
FFF8
0002
FFFA
FFFD
FFF6
FFFD
0007
0002
0001
0004
FFFF
FFFB
FFF8
0004
FFFE
FFFB
0004
0003
0002
FFFB
FFFF
0007
000C
0003
FFF9
FFFE
0005
0006
0003
FFFE
FFF8
0004
FFF7
0003
FFF7
FFF6
FFFF
0000
0002
FFFD
0001
FFFC
FFFD
FFFC
FFFE
0006
0003
0004
0006
0005
0002
FFFB
FFFB
FFFB
0002
FFFC
FFFD
0003
FFFB
FFFD
0003
FFF9
FFFE
0002
0003
FFFD
FFFD
FFFD
0003
FFFF
FFF2
0000
FFFE
0003
FFFD
FFFC
FFFD
0003
FFFE
0003
0009
0005
FFF9
FFFD
0000
0001
0001
0004
0006
0003
0008
FFFB
FFFE
FFFA
FFFC
0007
FFFC
0003
FFFD
FFFD
0007
FFFB
0001
FFFA
0009
FFFC
FFFA
FFFA
0002
0000
FFFA
FFFA
FFFE
0005
FFFD
0002
0003
000D
0000
0006
0002
0003
000B
0007
FFFA
0000
0001
0004
FFFA
0008
0005
FFF6
FFFB
0009
0000
000A
FFFB
0002
0007
0007
FFFB
0009
FFFC
FFFD
FFF6
0007
000B
FFFD
FFF7
FFFA
0000
FFF8
FFF8
FFFC
FFF6
FFF8
FFFE
0000
FFFA
FFF5
FFFE
0000
FFFF
FFFF
FFFF
0006
0000
0002
FFF8
FFFD
0003
FFFE
0004
0004
0003
0007
FFFD
0003
0006
FFFD
FFFD
0001
FFFE
FFFC
FFFD
FFFB
FFFB
FFF8
0003
0002
0002
FFF9
0002
0004
0000
FFFE
FFFE
0005
FFF9
0002
FFFD
0000
FFFF
0001
0004
0001
0002
0005
0001
FFF7
0007
0004
FFFD
0002
FFFD
FFFC
FFFB
FFFA
FFFD
FFFF
0003
0002
0001
FFF6
FFFF
FFFB
0000
0003
FFFF
FFFF
FFF9
0001
FFFD
0001
0000
0001
0005
FFFB
0002
0000
0003
FFFD
0008
FFFE
0000
FFFB
FFF9
0002
0007
0005
0002
FFFD
0003
0001
0001
FFFF
0003
0002
FFFF
FFFF
0000
FFF8
0006
FFFB
0007
FFFC
0000
0000
FFFE
FFFB
0006
0000
FFFD
0001
FFFA
0005
FFFC
0008
FFF9
0001
0007
0000
0003
0002
FFFA
0007
0006
0003
0001
FFFE
0001
FFFC
0002
FFFA
0000
FFFA
0008
FFFE
0003
FFFA
0003
FFFB
0000
FFFD
0000
FFFD
FFFF
0004
0001
FFFE
FFFB
FFFF
0003
FFFC
0001
0007
0000
0003
0003
0002
0002
0000
0005
0002
000B
0008
0000
0003
FFFB
0001
FFFA
0002
0004
FFFE
0001
FFFA
FFFF
0001
0003
0004
0005
0006
0005
0000
0007
FFFD
0004
FFFF
FFFC
0008
0005
FFFE
FFFF
FFFE
0008
FFFD
0007
0000
0001
0003
FFFF
FFFE
000B
000A
FFFD
0004
0007
0004
FFF8
FFF5
0009
FFFE
0000
FFF8
0003
FFFA
FFF4
FFF5
FFFB
FFFE
0006
FFFF
FFFE
FFF5
0004
0000
0004
0002
0007
FFFD
FFFF
0001
0000
FFFF
0005
FFFA
0007
0005
0001
FFFC
0004
0002
0002
0009
0002
FFF2
0004
0004
0000
FFF1
0000
0004
FFFC
FFFE
0007
0005
0002
FFFD
0005
0002
0008
FFFF
0001
FFFF
FFFB
FFFE
FFFE
0006
FFF9
FFFF
FFFC
FFFB
FFFE
0002
FFFD
0000
0001
000A
0000
0004
0007
0003
0009
0002
000A
0005
FFF9
FFFC
0002
FFFE
0002
FFFC
0002
0002
0004
FFFD
0003
0005
FFF3
000B
FFFF
FFFC
FFFC
0006
0000
FFFE
FFFA
0003
0003
0007
0006
FFFF
0006
0005
0000
0001
0001
0003
FFFE
0000
0007
FFFA
FFFE
FFFD
FFFF
FFF6
FFFB
FFF4
0006
0000
FFF3
FFF0
0004
FFFA
0008
FFFC
0003
FFFF
FFF0
000B
0004
0002
0009
000D
0002
0006
0001
000B
FFFA
0004
000A
000A
0003
FFF8
0007
0005
FFFF
FFF9
0002
0001
FFFA
0003
FFFC
0000
FFFC
0006
0000
FFFC
0005
FFFC
FFFD
0004
FFFF
FFF6
FFFE
FFF9
FFF6
FFF1
0004
FFFD
0007
FFF0
0005
0001
FFFD
0000
FFFB
FFFF
FFFC
FFFD
0000
FFFC
0007
0005
FFFE
0002
FFFD
FFFD
FFFB
FFF9
0000
0000
0009
0002
0004
000D
0001
0009
0008
0009
FFFB
0007
0004
FFFF
0004
0001
0002
FFFA
0009
0001
0005
FFFF
0007
0001
FFFD
FFF8
FFFC
0002
0006
FFFA
000A
FFFB
FFFB
FFFD
FFF9
0001
0002
FFFC
0007
FFFD
FFFC
0000
FFF9
0008
FFFE
0001
0001
0001
0005
0008
FFFD
FFFD
FFF8
0009
FFFE
0002
FFFF
0003
000B
0005
FFFB
0004
0005
0001
0002
FFFE
0001
FFFD
FFFA
FFF7
FFFE
FFFB
0001
FFF6
FFFF
FFF9
FFFB
FFFA
0003
FFFF
0000
0000
0006
0005
0003
0000
0004
FFFE
FFFF
FFFE
0005
FFF9
FFFC
FFFC
FFFB
0000
0004
0001
0002
0002
0003
FFF6
FFFB
0005
0006
FFF7
FFF8
FFFD
FFFB
FFFD
0006
0002
FFFF
FFF9
FFFE
0002
FFFD
0005
0001
0005
0008
FFFC
FFFD
0002
FFFF
FFFE
FFF8
0003
0006
0004
0004
FFFB
0000
0008
0005
FFFD
FFFD
000A
0001
0003
FFFF
000B
FFF9
0004
FFF8
0009
0004
0000
0006
0008
FFFE
0001
FFF5
FFF9
0008
0001
FFFD
0004
0000
FFFD
FFFA
0003
FFFA
0000
FFFF
FFF6
FFFD
FFFC
0000
FFFC
FFF3
0004
FFF9
FFFA
0004
FFFC
FFFE
FFFE
0000
FFFE
0008
0004
FFFE
0001
0004
0004
0009
0004
0001
0006
0005
0000
FFFC
FFFE
FFF9
FFFE
FFFF
FFF9
0002
FFF9
0004
0004
0004
0006
FFFF
0003
FFFA
0001
0006
0005
FFFD
FFFA
0009
0001
FFFF
FFFC
0008
FFEF
0000
FFF7
000B
FFF8
0006
0001
0005
0004
FFFA
FFFE
0004
FFFD
FFFD
0007
0009
000D
FFF6
0011
FFF7
FFFC
0003
0005
FFFA
0002
0000
0000
000C
0008
0003
0001
000C
FFF3
0003
FFF8
0007
0002
0004
FFFA
0002
0003
FFFD
FFFD
FFFF
FFFE
0007
0005
0000
0004
FFFC
000C
0002
FFF5
FFFD
0007
FFF8
0002
0003
0000
0008
0004
FFF8
0006
0004
0003
0004
0004
0008
0002
000B
0003
0008
FFFE
FFFD
FFFE
FFF9
0001
0003
FFF9
000B
FFFE
0006
0004
0003
FFF9
FFFD
0001
FFFD
0005
FFFD
FFFE
0001
FFFA
0000
0001
0005
0000
0002
FFFC
0004
0006
0005
FFFD
0009
0001
0005
0005
0002
0002
FFFF
0003
0009
FFFE
FFFC
0002
FFFE
0001
FFFF
0002
FFFD
0001
FFFC
0001
FFFC
0000
0005
FFFD
FFF8
0001
FFFD
0001
FFF8
FFFC
0004
0000
FFFD
0000
0001
FFFE
0000
0003
0000
0001
FFF6
FFFD
FFFC
0005
0004
FFFE
FFFD
FFFD
0001
0002
FFFE
0003
0004
FFFB
FFFE
FFFE
0003
FFF9
0002
FFFC
FFFC
0001
0004
0002
0005
0000
FFFB
0005
0002
FFFB
FFFD
0003
000A
FFFF
000E
0000
0001
FFFF
0001
0009
0006
0004
FFFF
0004
0003
FFFD
FFFE
0001
0007
FFFB
0001
FFF2
0003
0009
0008
0001
0007
0006
FFFB
FFFF
0000
0005
FFFC
0006
0009
0006
000D
FFFD
FFFA
0006
0002
0003
0000
0004
0000
0004
0008
FFF6
FFF5
FFFD
0003
FFF2
FFFF
FFFA
0006
0000
0001
0002
FFFB
FFFC
0001
0002
0001
0003
0002
FFFF
0000
0003
FFFF
FFFF
0004
000D
0000
FFFC
0008
FFFA
0003
0000
FFF3
FFFB
0005
0003
0007
0002
FFFB
FFFD
FFF1
FFFD
FFFA
0002
0005
FFFF
FFFA
FFFE
0000
FFF7
0009
FFFC
0002
000A
0004
FFFF
0002
FFF8
FFFC
0007
FFF3
0004
FFFA
FFFA
0003
0003
FFFB
0003
FFFF
FFFC
FFFF
0000
000A
0003
0001
0003
FFFA
FFFC
0002
0001
0007
0009
0002
0000
FFFA
FFF5
FFFD
0001
0001
0006
FFFC
FFFE
0005
0003
0007
0002
0009
0002
FFFD
0002
FFFE
0001
0000
FFF8
0003
0001
0004
0001
0001
FFF8
FFFC
0001
FFFF
FFFA
0007
FFFE
0008
FFF8
0006
FFFF
FFFF
0006
0003
FFFB
0000
FFFB
0005
0001
FFFF
0009
0001
000D
FFFC
0002
0008
0003
FFFA
0003
0000
0001
0000
0001
0006
FFF6
FFF5
FFFE
FFFF
FFF5
0001
0005
FFFA
FFFF
FFFE
FFFD
FFF7
FFFC
FFFF
0005
FFF5
FFFC
FFFC
0000
0004
0003
FFFE
FFFA
0003
0006
0006
0003
FFFF
FFFE
0006
0002
0006
FFF9
0000
FFF6
0005
0000
0002
0002
FFFF
0003
0002
0000
FFFC
FFFE
0001
FFFC
FFFA
FFFF
0001
FFF4
FFFF
FFF9
0003
FFFA
FFFF
0003
0002
FFFD
0013
FFFB
FFFB
FFFC
0003
0002
0006
0003
FFFF
0001
FFFB
FFF9
FFFC
0010
0002
000A
0004
FFF7
0007
FFF8
0007
0006
FFF9
0008
0001
FFFF
FFFF
FFF5
FFF5
0004
0006
FFFE
FFFD
FFFC
FFFD
0000
0006
FFFF
FFFF
FFFE
FFFF
FFFF
0000
FFF5
FFF8
FFFE
0006
FFF9
FFFF
0000
FFFA
0002
FFFB
0000
FFFB
FFFE
0007
FFFE
FFFF
FFFD
FFFA
FFFE
0003
0007
0003
FFFA
0008
0009
0000
FFFE
FFFE
FFFC
FFFF
FFFD
FFFF
FFFC
0007
0006
0001
FFFD
0001
0004
FFFA
0004
FFFD
FFFB
0005
FFFF
0003
0003
FFFA
0001
FFFC
0003
FFF5
0002
0000
FFFD
FFFE
0003
000A
FFF9
FFFB
000C
FFFE
FFFB
FFFB
0002
0007
0004
000A
0002
FFFB
0005
FFFF
0002
FFFB
FFFE
0002
FFFC
0007
0007
FFF8
0003
FFF8
0008
FFFE
FFFC
FFFC
0004
FFFA
FFFF
0009
0004
0003
0010
0003
0002
0006
FFFF
0004
0007
0006
0009
0003
0002
0003
0004
0000
FFFD
0005
0002
0005
0002
0001
0008
FFFB
0006
FFFA
FFFD
FFF9
0001
FFFC
0003
0002
0001
FFFF
000B
0008
0004
0003
0000
0001
0004
0005
FFFF
FFFA
0000
FFFD
0003
FFFF
FFFC
000A
FFFC
0003
FFFF
0002
FFF8
FFFB
0003
0007
FFFC
0004
FFFF
0001
FFFC
0008
0002
FFFB
0001
0000
0000
0005
0002
FFFB
0002
FFFD
0007
0001
0002
FFFB
FFFF
0003
FFFE
0004
FFFD
000A
0000
FFF8
0002
0002
0000
FFFC
0000
FFFE
FFFC
0003
0002
FFFF
FFF8
FFFF
0006
FFFE
0004
0005
0003
FFFC
FFFD
0006
FFFF
0000
0002
0003
0004
FFFE
FFF8
FFFF
0005
0000
0001
FFFD
0000
0006
FFFD
FFFF
FFFE
FFFF
0002
FFFC
FFFE
0002
FFFC
0004
0004
0003
0005
FFFC
0008
FFFC
0007
0003
0001
FFFB
FFFF
0000
0002
0001
FFFD
0005
FFFC
FFF9
0001
0009
0000
0002
0000
000B
0005
000D
0001
FFFC
FFF9
0002
0004
FFFC
FFFB
FFF2
FFFE
0003
FFF3
FFF9
0006
FFFA
0002
0009
FFF7
000A
FFFC
0002
0007
0004
FFFE
FFF3
FFFD
FFF8
0005
FFFC
FFFB
0009
0012
000A
FFFE
0003
FFFD
FFF8
0004
0003
000A
FFFE
FFFE
FFF8
0005
FFFD
0000
FFFC
FFFA
0006
FFF8
0009
0002
0008
0008
0000
0001
FFFA
0004
FFFD
000E
0004
FFFE
0001
000C
0004
0003
000B
FFFB
0004
0002
0002
000A
FFFA
FFFE
FFFA
0006
0005
FFFC
FFF6
000A
0001
0003
0000
0000
0003
FFFC
0005
FFF3
0000
0000
FFFD
FFFA
0001
0008
FFFE
0003
FFFA
0000
FFFA
0005
FFFB
0000
0009
0001
000E
0004
FFF6
0004
000B
000A
0003
FFF9
0002
0009
FFFC
FFFE
0009
0008
0009
FFFB
FFF2
FFFF
FFF9
0009
FFFF
FFFD
000E
0005
0003
0000
000B
FFFD
FFFF
0003
0008
FFFC
FFFD
0001
FFF8
0001
0006
0001
FFF6
0004
0003
0000
0007
0001
000B
0009
0004
FFF6
FFFD
FFFA
0006
FFF9
FFF8
FFF5
0009
0000
0004
0005
0004
0002
FFF9
000A
0006
0006
0006
0003
0004
FFFF
0004
0007
FFFD
0004
0004
0003
0005
FFF8
0006
0001
FFFF
0006
FFF7
0008
FFF9
FFFE
0000
0002
0001
000A
0003
FFFD
FFFD
0000
0003
FFFB
0002
FFF8
0002
FFFB
FFFD
0000
0001
FFFF
FFF9
FFF6
FFFC
FFF9
0000
0004
0003
0005
FFF6
FFFF
FFFB
FFFB
0002
0003
FFFC
FFFE
0005
FFFF
FFF9
0007
0001
0001
FFFF
FFFF
FFFE
FFFE
0001
0004
0006
0003
0004
0001
0000
0005
0000
0006
0005
FFFD
FFFF
FFFF
FFFE
FFF6
0006
FFFC
FFFA
0000
FFFE
FFF6
FFFC
0003
FFFF
FFFD
0005
FFF7
0003
000B
0001
FFFE
0006
0005
0004
FFFC
000B
0001
FFFE
0005
0005
0000
0009
FFFA
FFFE
0001
000A
FFFC
FFF9
0004
0002
0002
0006
0004
0005
FFFE
0002
0000
FFFB
FFFB
0008
0003
FFFE
FFF5
FFFB
0002
0008
FFFD
0001
0001
0002
FFFF
0003
FFF9
0005
FFFD
FFFF
0003
FFFE
0004
0003
FFFE
FFFF
0001
0004
0001
0001
0003
0003
FFFA
0005
0000
0007
FFFB
0000
FFFE
0001
FFFE
0003
FFFA
FFFD
FFFC
0002
0002
0000
FFFE
0001
0001
0001
FFFF
0002
FFFB
0001
FFFB
FFFF
FFFA
0001
FFFB
0001
FFFD
FFFC
FFFB
0001
0001
FFFF
0004
0001
0003
FFFE
0000
FFFC
0000
0002
0007
FFFF
0002
0004
0000
0004
FFFB
0008
FFFD
0000
0003
FFFF
0003
FFFB
0001
0001
0006
0003
FFFF
0002
FFFA
FFFF
0001
0004
FFFE
FFFC
0003
0005
FFFC
FFFF
FFFF
FFF5
0002
FFF8
0004
0001
0000
0000
0000
FFFF
0000
FFFD
0002
0003
FFFB
FFFD
0002
FFF8
0001
0007
FFF7
0004
FFFE
FFF6
FFFA
0005
0001
FFFA
FFFF
0005
FFF9
FFFC
0008
FFFD
0006
0004
0002
0004
FFF8
0002
0001
FFFE
0000
FFFE
0002
FFFA
FFFF
FFFD
FFFE
FFFB
0003
FFFD
000A
FFF5
0007
FFF8
0003
0008
FFF8
FFFC
0002
FFF8
FFF3
0001
FFF6
FFF8
FFFF
0005
0006
FFFA
FFFA
FFFA
0000
FFFF
FFFF
FFFD
FFF6
FFFF
FFF7
0001
FFF3
0000
FFFD
FFFE
0001
0004
0003
FFFE
FFF9
FFFB
FFFC
FFFF
0005
0006
0002
FFFE
0009
FFFD
0000
000A
000B
FFFB
0006
0000
0003
0006
FFFC
FFF9
0004
FFFB
FFFF
0002
FFFB
0007
0007
0006
0008
FFFE
0004
0000
0000
0003
FFF6
FFFE
0000
FFFD
FFFB
FFFE
FFF9
FFFA
FFFC
0005
FFFC
FFFC
0002
0001
0003
0007
FFFE
FFF9
0001
0000
0004
FFFE
0003
FFF8
0003
FFF5
0002
FFF9
FFFD
0010
000A
FFF6
FFFC
FFFA
0001
0003
0000
0006
0006
0007
FFFF
FFF8
FFFB
FFFB
0007
FFFC
0008
FFF6
FFF9
FFF5
0001
0006
0002
FFFB
0002
FFFD
FFFD
FFFA
0001
FFFF
0005
0004
0006
FFFF
FFF7
0000
0007
0007
FFFE
FFFA
0007
0005
0008
0002
0004
FFF6
0006
FFFC
0007
FFF5
FFFB
FFFD
FFFF
FFFC
FFFF
0006
0000
FFFF
FFF7
0001
0002
0002
0004
0007
0004
0001
FFFC
FFFF
0004
0008
0003
0003
000B
0006
0003
0001
FFFA
0001
000A
FFFD
0007
FFFF
0001
FFFB
000A
FFFD
0002
0003
0002
FFF8
0001
FFFC
0002
FFF7
0005
0008
0002
FFF8
FFFA
FFFF
0006
0009
FFFD
0001
0001
0006
FFFD
FFFD
FFFD
FFF5
0001
FFFF
0006
FFFB
FFFB
FFFD
0001
000D
0000
FFFF
0004
FFFD
0004
FFFE
0005
FFF9
0004
0001
0004
0005
0000
FFFE
0008
FFFC
FFFC
FFFE
0004
0006
0005
FFFF
FFFD
FFFF
0002
0000
0005
0000
FFF9
0006
0000
FFF5
FFFF
0007
FFFC
0005
FFFE
0008
FFFC
0003
0000
FFF9
FFFB
FFFE
FFFE
0001
FFF6
FFFB
0002
FFFB
FFFE
FFFF
FFFA
FFFF
0005
FFFD
FFFF
0005
FFFA
0009
0001
0001
0002
FFFA
0000
0005
FFFB
FFFE
FFF8
0009
FFFD
000A
0001
FFF8
0000
0007
FFFF
0005
0002
0000
0002
FFFB
FFF9
FFFD
0003
FFFC
0006
0004
0000
FFFE
FFFA
0008
0003
0008
FFFB
FFF1
0001
0002
FFFE
FFF9
FFF9
0004
0000
0003
FFFC
0001
FFF7
FFFE
0003
0004
0001
0000
0003
FFFB
FFFD
FFFF
0008
FFFF
FFFE
0005
0002
0003
FFFF
0002
0006
0000
FFFE
FFF7
FFFE
FFF5
0000
0004
0002
0002
0002
0006
FFFE
FFF9
FFFD
0003
0001
0007
FFFA
0007
FFFD
0001
0003
FFFA
000C
0001
FFFA
0007
FFFF
0005
FFFF
0002
0005
FFFD
FFFF
0000
0006
0003
0006
0003
0006
FFFA
0001
0005
0008
0000
FFFE
0007
0000
0002
0001
0007
0002
FFFD
0006
0003
0006
0007
FFFD
FFFD
0002
0002
0004
0008
FFF9
FFF9
0001
0007
0002
0002
FFFD
0005
FFFF
FFFD
0000
0000
0004
0005
FFFC
0004
0001
0002
0003
0006
FFFE
FFFE
FFFD
0004
0003
0007
FFFD
0004
0003
0003
0005
0005
FFFC
0005
FFFC
FFFF
FFFB
0003
FFFC
FFF3
FFFD
000B
0008
0000
FFFD
0005
0004
0000
0002
0001
FFFD
FFFE
0006
0010
FFF9
0006
0001
FFF4
0003
0000
0003
0006
FFFE
0003
0004
0007
FFFF
FFF6
0002
FFFA
FFFE
0005
0005
FFFF
0004
000B
0000
FFF7
FFF6
0007
FFFA
FFFA
0002
0000
FFFC
FFFA
FFFE
0001
0003
0006
FFFB
FFFC
FFFA
0007
0003
0000
FFFF
0001
FFFE
0007
0001
FFFF
FFF6
0005
0006
0003
FFFF
0001
FFF4
FFFD
FFFB
0003
0006
0001
FFF6
0000
0001
FFFD
FFF9
0001
0004
0006
0004
0008
FFFA
0004
FFFB
0007
0002
0002
0003
FFF5
FFFF
0002
FFFB
0003
0000
0003
FFFD
0007
FFFA
FFFC
FFFC
0003
FFFE
0003
0008
0000
0007
0003
0007
0002
0008
FFFE
FFFF
FFFA
0000
0004
FFFE
FFFD
FFFF
0003
0002
FFF9
FFF3
0001
FFFE
FFFC
FFFF
0005
0002
0004
FFFB
FFF9
FFFA
FFFA
0005
0009
0009
FFFF
0005
0001
0001
0001
0009
0006
000C
0002
0004
000F
FFF7
0007
0006
FFFE
FFFF
0000
0000
FFFD
0003
FFF5
FFFF
FFFB
0001
FFFD
FFFA
0006
0000
FFF8
FFFE
FFF8
FFFF
0001
0001
FFFF
0000
FFFA
0000
0003
0000
FFF4
0000
FFFD
0006
FFF1
FFFB
0002
0000
000E
0005
FFFA
0000
0000
0001
FFFB
0002
0006
FFFA
0003
FFFF
FFFD
FFFD
FFFA
FFF9
0000
FFF8
FFFC
FFFB
0002
0003
0001
FFF7
0001
0002
FFFF
FFFD
FFFA
FFFC
FFF6
0004
FFFF
0002
0001
0008
FFFE
0000
FFF5
FFFC
FFF0
FFFA
FFFA
0001
0009
FFFF
FFFB
0003
FFFE
0005
0009
0000
FFFA
FFFC
0003
FFFB
FFFA
FFFF
FFFF
0004
0000
FFFF
0007
FFFD
0002
0001
FFFE
FFFF
FFFB
0002
0006
FFFC
0008
FFFC
0004
0007
FFFE
FFFD
FFFB
0001
FFFC
FFFA
0005
0008
FFF6
0001
0006
0011
0001
0000
0001
0007
FFFF
FFFD
0007
0002
FFF4
0006
FFFC
0002
0005
0006
FFF9
FFFB
0004
FFFE
FFFB
FFFA
0001
FFFA
FFFE
FFF1
FFFF
0000
FFFE
FFF8
FFF6
0002
FFFF
FFFB
0002
FFF4
FFF8
0004
0001
0000
0004
FFFE
0003
FFFE
0002
0006
FFFF
0000
0000
FFFD
FFF6
0005
0004
FFFE
FFFE
0007
0001
0005
0004
0007
FFFD
FFF8
FFFF
FFFE
0000
0004
0007
0003
0004
FFFC
0007
0001
FFFB
0002
0002
0003
0000
0002
0001
0002
0005
000C
FFF8
FFFD
0008
0002
0001
FFFB
0001
FFFF
FFFD
FFF9
0004
FFFC
FFFA
0002
0000
FFFC
FFFC
0000
0002
0006
0005
FFFF
0002
FFFE
FFF9
0003
FFFD
0000
0006
FFFE
FFFC
FFFE
000A
0002
0001
FFF9
FFF1
0006
0000
0001
0000
0001
FFF9
FFFE
FFF9
0003
FFF9
0005
0005
FFFB
0000
FFFF
0008
0004
0002
0001
0003
FFFF
000E
FFF5
0008
FFFC
0004
0003
0001
FFFF
FFF7
0004
FFFD
FFFF
0002
FFFC
0005
0007
000C
FFFF
FFFC
000F
FFF9
FFF5
FFFF
000B
FFFF
0002
0003
FFFE
000D
000A
FFFA
0006
0003
FFFF
0007
0001
0007
0000
0009
0007
0000
FFF6
FFFE
0006
FFFB
FFFC
FFFD
FFFE
0001
FFFD
FFFB
0001
FFFC
FFF8
FFFE
FFFA
FFFE
0006
FFFE
FFFC
0014
000A
0000
0003
0001
FFFC
0005
0002
000B
0000
0010
FFF9
0004
FFF9
0001
0003
FFFC
0004
FFF9
FFFF
FFFE
FFFC
FFFB
FFFF
FFFE
FFFA
0002
FFF5
FFFE
0004
0000
0005
0004
0002
FFFC
0002
0007
FFFA
0007
FFFD
0002
0003
FFFF
FFFE
FFFE
0000
FFFD
FFFF
0004
FFF9
000B
0001
0012
0004
0005
0010
FFFC
FFF1
FFFE
0004
FFFE
0002
0001
FFFD
FFFC
FFFC
FFFA
0000
0004
FFF8
0000
0000
FFFF
0005
0002
0003
0006
0005
0002
0005
0001
0002
0002
0005
000C
0002
FFFC
0001
FFFC
FFFF
FFFD
0004
0001
0005
0002
FFF7
FFFC
0008
0002
0003
FFF7
0004
0000
0004
0004
0003
0003
FFFA
0002
FFF8
0001
0002
FFFF
0008
0002
0001
FFFA
0008
FFFA
0000
0001
0002
0000
FFFA
0003
0006
0001
0000
0001
FFFC
FFFF
FFFE
FFFD
FFF5
0001
FFFC
0001
FFFB
0004
0001
0001
FFFE
FFF5
0005
0004
0000
0001
0001
000A
0007
0008
0004
0005
FFFE
0001
0001
0002
0004
FFFD
0000
0004
0001
FFFD
0003
0002
FFF9
0000
FFFA
0001
0004
0008
FFFC
FFFF
0000
FFFC
0000
0003
FFFB
0000
FFFF
0007
0005
0002
FFFC
0001
0005
FFFF
0007
FFFC
FFFF
0001
0001
0006
FFFB
FFF9
FFF9
0001
FFF7
FFFB
FFFB
0007
0002
0000
0004
0000
0003
FFF9
0004
0002
0003
0003
FFFE
FFFE
FFFC
0003
0006
FFFB
FFFF
0001
FFFD
000D
FFFD
0008
000A
0003
FFFE
000C
FFFE
0004
0003
0005
0009
FFFD
FFFB
0001
0002
FFFA
FFFF
FFFE
FFFF
0001
FFF8
0001
0001
0002
0006
0005
0008
0008
FFFC
0005
FFFE
0004
0005
0002
FFFA
0004
0003
FFFA
0007
FFFB
FFFF
0009
0007
000A
0004
0009
0000
FFF6
FFF5
0006
FFFC
FFFC
FFF9
0002
FFF6
FFF6
FFF0
FFFD
0001
FFFF
FFFE
FFFD
FFF9
000A
FFFE
000A
0008
0002
FFFC
0002
FFFE
FFFF
FFFD
FFFB
FFF8
0005
0007
0005
0003
0003
0001
FFFB
0004
0001
0002
000B
0004
0005
FFFB
000F
0007
FFFF
000A
0000
0009
0003
FFF8
FFFF
FFFD
FFFC
0004
0003
0009
0003
0006
0005
FFFF
0001
0003
FFFD
FFFF
0003
FFFC
0006
FFFB
0000
FFFC
0000
FFFE
0001
0002
FFFC
FFFC
0003
FFFA
FFFF
0000
FFFE
0001
FFFE
0002
FFFB
0006
0003
FFFD
0006
0008
0004
0000
0001
0002
FFF5
0003
0009
FFFD
0006
FFFF
FFFD
0007
0001
0003
0006
000D
0007
0002
0004
0000
FFFB
0009
0002
0009
FFFB
FFFC
FFFF
0006
FFFE
0005
0001
0001
FFFE
0000
0003
0001
0003
0006
0003
FFFE
0009
FFF9
FFFD
0004
FFFA
FFFF
FFFD
0005
0001
0004
FFFA
0002
FFFF
FFFF
0005
0009
FFFF
0001
FFFC
0004
0003
FFFB
0007
0000
FFFF
0000
0004
FFF9
0001
FFF6
FFFC
0002
FFFF
0004
FFFF
0002
0000
FFFF
000D
0002
0004
0001
0009
000C
0005
0001
0006
FFFE
0000
0003
FFFA
0001
0004
0001
FFFF
0004
0001
0000
FFFF
0004
0003
FFFB
0006
0005
0001
FFFC
FFFE
0003
0005
FFFD
0005
0003
0007
0004
FFFD
FFFE
FFFE
0006
FFFF
0001
FFFE
FFF9
FFFC
FFFF
0001
0002
0000
0003
FFFD
0005
0000
0001
0000
FFFC
FFF9
0000
0007
FFFA
FFFE
000B
0003
FFFA
FFFA
0003
0007
0000
0008
0001
FFFA
0001
0000
FFFF
FFFC
0000
0001
FFFB
FFFE
0002
FFFC
FFFF
FFFC
0002
FFFE
0000
0008
FFFD
FFFD
0000
0004
0004
0005
000D
0004
FFFE
000B
0002
FFFC
0007
FFFF
0005
0000
0000
0001
FFFF
0000
FFFC
0000
0004
FFFB
FFFF
FFFE
0003
FFFA
0008
0004
0004
0001
FFFE
FFF7
0006
0002
0001
FFFD
000D
FFFF
FFF9
FFFE
0005
0001
FFFD
0003
FFFC
FFFB
FFFD
0005
0002
FFFB
FFFD
0003
FFF7
0002
0000
0000
0001
FFFA
FFFE
0000
FFF5
FFFB
0000
FFFD
0002
0004
0004
0004
FFFF
0001
0003
0003
0008
FFFB
0001
FFF8
FFFE
FFFE
0007
FFFD
0000
0001
FFF9
FFFB
0009
0007
FFFF
FFF8
0001
0002
0004
FFFE
0003
FFF8
0002
0001
0001
0000
FFFD
FFF8
FFFD
FFFF
FFFD
FFFA
FFF9
FFFC
FFF2
FFFE
FFF9
FFF4
FFFE
FFF9
0001
FFF5
FFFD
FFFE
0004
0005
FFFC
FFFE
0001
0007
0005
0000
0004
0004
0000
0000
FFFD
0001
FFFF
FFFF
FFFB
0005
FFFA
FFF4
FFF7
0001
0002
0001
0006
0000
FFFF
FFFE
FFFF
FFFF
FFFB
0000
FFF8
FFFB
FFFE
0009
0003
FFFC
FFFF
FFFD
FFFD
0008
0000
0003
FFFD
0004
0004
0001
FFFF
FFFD
000B
0007
0003
FFFA
0002
FFF8
FFFC
0003
0005
0002
0006
0005
0000
FFFD
0000
000C
FFFF
FFF6
FFF8
FFFF
FFF7
0002
000E
0001
FFFE
FFFA
000E
FFF9
FFFB
0001
FFFB
0012
0000
FFFD
0003
FFFE
0003
FFF4
FFF2
0002
FFFD
0001
0004
0002
0004
0001
FFFF
0006
FFFA
0000
FFF7
FFFF
FFFA
0005
0001
0000
FFFD
FFFD
0001
FFFC
0002
0001
FFF8
0010
0004
0005
FFFA
0004
0005
FFF5
0006
0004
000D
0007
FFFE
FFFF
0008
FFFF
FFFA
FFF7
0002
0000
000A
FFFE
0000
FFFF
0006
FFF8
0009
0011
FFFE
0000
0000
0007
0005
FFF6
0000
FFFD
000C
000B
FFFD
0001
FFF8
0001
FFFF
0005
0004
0001
FFFE
0004
FFFD
0002
FFFD
FFFB
FFF6
FFFE
FFF9
0008
000B
FFFA
0000
FFFE
000A
FFF5
0005
0006
FFF7
0015
0004
0001
FFFE
0002
000A
FFFD
FFFC
0002
0007
0002
FFFF
0006
000D
0001
FFF8
FFFB
FFF9
0009
FFF6
FFFC
FFFC
0006
000A
FFFF
0000
FFFE
FFFD
FFF5
000B
0007
0000
0001
0008
0003
FFF8
000E
0005
FFFD
FFFE
000A
0005
0007
FFF3
0003
0007
FFFD
0004
FFFA
0009
FFF2
FFFF
0008
0004
FFFE
0000
0009
0002
FFFD
FFFB
0003
FFF7
FFF9
FFF8
0001
FFF9
FFF3
FFFA
FFF8
FFF8
FFFF
FFFB
FFF9
FFF3
FFFA
0004
FFFE
0001
FFFD
0004
FFFD
FFFB
0001
0001
FFFB
0000
0006
0008
0002
0000
0004
0003
FFFF
0003
0001
FFFA
0003
0001
0000
FFFE
0005
0004
FFFC
0007
0005
0003
0007
FFF8
0005
0008
000B
FFF8
FFFC
FFFC
FFF7
FFFA
FFFC
FFFD
0002
0007
0008
0001
0000
FFF4
FFFB
0007
0004
FFFF
0003
0004
0005
FFFE
0009
0002
0000
0004
0006
0003
000B
FFF4
0007
000A
0010
FFFD
FFFD
0003
0001
FFFF
FFFF
0004
0006
0009
0001
FFFE
FFF9
FFFF
0004
0001
FFFE
FFFE
0000
FFFF
0007
FFFF
FFFD
0005
0007
0007
0004
FFFC
0006
FFFF
0006
FFFE
FFFA
0009
0003
0003
FFFB
FFFE
0004
0003
0000
0000
0000
FFFE
FFFC
FFFD
0008
FFF8
FFF9
FFF6
0006
FFFB
FFF9
FFFA
0000
FFFD
0007
0005
FFFB
FFF4
FFFF
0007
FFF9
FFFC
0004
FFFC
0000
0006
FFFE
0001
0001
0002
FFF7
0004
FFFE
0000
0002
0000
0001
FFFE
FFFD
FFFC
0003
FFF9
FFFF
FFFE
FFFB
FFFC
FFFD
FFF6
FFFF
FFFF
FFF7
0001
0002
FFFD
0000
0001
0001
0007
FFF6
0006
0004
0007
FFFE
FFF9
FFFB
0000
FFFE
FFFF
0005
FFF9
FFFD
FFFF
FFFF
FFF9
FFFD
FFF6
FFF2
FFF6
FFF9
0001
FFFD
FFFD
FFF8
0003
FFFC
FFFB
0005
FFFD
0004
FFF8
FFFB
FFF9
0002
FFFF
0009
FFF7
0009
FFF9
FFF7
0000
0001
FFFC
0000
000B
0007
0001
FFFF
0004
0000
000A
0007
000F
0003
0006
0005
FFFD
0008
FFFD
0001
000B
0005
0002
FFFB
0001
0004
0006
0006
FFFF
FFFE
0006
FFF1
0006
0004
0003
FFF9
FFFD
FFFF
FFF5
FFFA
FFF3
FFF9
FFF5
0004
FFFE
0002
FFF7
FFFD
0003
FFFE
0001
FFF9
FFFE
0004
0005
FFFD
FFFC
0000
000C
FFFD
FFFD
0002
0005
FFFF
0004
0002
FFFB
FFF5
0006
FFFF
FFF7
FFF4
0004
FFF3
FFF2
FFFE
FFFD
FFFB
FFF3
FFF4
0006
FFFB
FFFA
FFFA
0007
0004
0005
FFFB
0002
0004
000E
0005
0005
0001
0006
FFF3
0003
0005
FFFC
FFF4
FFFE
0001
FFF5
FFFE
FFF7
FFF3
FFF7
0005
FFFA
FFFC
FFF6
FFF7
0006
FFF9
0001
FFF4
0004
0003
0005
0005
FFFC
FFFE
0003
FFF8
0003
FFFD
FFFF
000D
0005
FFFA
FFF7
FFFF
0006
0000
0000
FFFE
000A
0004
FFFF
FFFF
FFFF
FFF9
0004
FFF9
0003
FFFD
0001
FFFA
FFFE
FFFF
0002
FFFF
0005
0003
0002
FFF9
FFFE
FFFE
0001
0004
0001
0000
FFFE
FFFD
0006
0005
FFFC
FFF9
0003
0007
0002
FFFF
0003
FFFC
0007
FFFC
0000
FFFE
FFFD
FFFC
0005
0002
FFFD
000C
FFFF
FFFC
FFFD
FFFE
0006
0003
FFFD
0005
0007
FFFB
FFFF
FFFE
FFF6
0006
FFFE
FFFD
000C
FFFF
FFFE
FFFA
FFFA
0001
0008
FFFB
0004
FFF8
FFFC
FFFD
0003
FFF4
0004
0002
0001
0000
FFFF
FFFE
0003
0000
0009
0007
0005
FFFC
FFFE
FFFC
FFFC
0006
FFFF
FFFD
0002
0004
FFFE
FFFB
0003
FFF8
FFFB
0002
FFFE
FFFC
0002
FFFF
0002
FFFE
FFFF
FFFF
FFFA
0004
FFFC
0003
0001
0005
0003
0003
FFF9
FFFE
0006
0003
000E
0001
0003
0000
0001
0006
0001
0003
0002
FFFE
0004
0004
FFF9
0006
0005
FFFE
FFFD
FFF7
0005
0004
0007
FFFE
000C
FFFC
0000
FFFC
0005
FFF5
FFFF
0002
0001
FFFA
FFF8
FFFE
FFF7
FFFA
0002
FFF9
FFF8
FFFB
FFF9
FFF9
FFFA
FFF6
0004
FFFC
FFF8
0000
0004
FFFE
0005
FFFD
0004
FFFA
0007
FFF9
0003
0003
0001
FFFB
0006
0006
FFFE
FFFF
FFFD
FFFD
FFF6
FFFA
FFFA
FFFF
FFFE
FFF7
FFF8
0000
FFFF
FFFA
0002
FFFC
FFFF
0002
0004
0001
0001
0000
FFFF
FFF8
0004
FFFE
0006
0001
0000
0003
FFFC
0002
0005
0000
0001
0000
FFFC
0000
0000
FFFE
0005
FFFF
FFFF
0001
FFFD
FFFB
0004
FFFF
FFFC
0001
0002
FFF4
0003
FFFB
0000
0005
0007
0007
0001
0004
0002
0004
FFFC
0004
FFFE
0001
0001
0000
0001
0000
000B
0005
0001
FFFA
FFFA
0003
FFFE
FFFE
0004
0001
FFFE
0000
FFF5
0003
FFFA
000B
FFF9
FFFF
0000
FFFD
FFF4
0001
0002
0003
0003
FFFE
0005
0000
0001
FFFD
FFFD
0006
FFFD
0009
0009
FFFB
0002
0001
0002
0004
FFFA
0002
FFFB
0006
FFF9
0002
FFFB
000B
FFF9
0002
FFFC
0003
FFFD
0007
0005
0000
0002
0001
0004
0003
FFFF
FFFB
0000
000E
0001
0002
0005
0002
FFFD
0002
0009
0003
0001
FFFC
FFFF
0005
0004
0003
FFFD
FFF7
0001
FFF8
0004
0004
000A
0005
FFF9
0000
0006
0005
0001
0008
0001
0006
0002
FFF9
FFFA
FFFE
0003
0005
FFFF
0003
FFF9
0001
0003
000C
FFFC
0007
0005
FFFB
0004
FFF7
0003
0008
0007
0005
0004
000D
0007
FFF8
FFFF
0007
FFFD
FFF9
FFFF
FFFC
FFF7
FFF9
FFFB
FFFB
FFFF
0006
0006
FFFF
FFF6
0009
0005
FFFE
FFFE
0008
FFF6
0001
FFFA
0006
FFF7
FFFF
0004
0008
FFFF
0000
FFFB
FFFE
0000
FFFC
0006
0009
FFFA
0007
000A
0003
FFF9
0008
0000
0007
000B
0009
0001
0004
FFF5
0010
0002
FFFF
0007
0003
0003
0001
0001
0002
FFFF
000A
0007
FFFF
FFF8
FFF7
FFFC
0003
0001
0003
0003
FFFD
0001
0003
FFF9
FFFE
0001
FFFA
FFF9
0000
FFFE
0004
0001
FFFC
0004
0008
0001
FFFB
FFF8
FFFC
FFFF
FFFB
0001
000C
0007
0005
FFF9
FFF9
0001
FFFE
0008
0004
FFFD
000C
0007
000D
FFFE
0007
0007
FFFA
0004
0000
FFFB
000A
FFF4
0005
000B
FFFE
0005
0000
0003
FFFE
0005
FFF9
FFFE
0001
0003
FFF0
0001
FFFE
0000
FFFB
FFFD
FFFC
0004
FFFF
FFFF
0001
FFFE
FFFB
FFF9
0000
0006
FFF7
0005
FFFC
0002
FFF3
0002
FFFB
FFFD
000A
0001
FFFF
000A
0001
FFFA
FFF3
FFFA
0000
FFFC
0002
0000
0000
0002
FFFF
FFFE
FFFD
0003
FFF7
0007
0008
0009
FFFF
FFFC
0003
0002
0007
000A
0004
FFF9
0000
0000
FFFA
FFFF
FFFE
FFFD
FFFC
0000
0003
0004
FFFC
0001
FFFA
FFFF
0005
FFFA
FFFC
0000
FFFA
FFFB
0004
FFFA
FFF7
FFFC
0004
FFFF
FFFE
0000
FFFC
FFF9
FFFF
0001
0001
0009
0006
FFFF
FFFF
0005
0001
0000
FFFB
FFFC
0005
0004
0004
FFFF
0000
0000
0002
0004
0002
0004
FFFD
FFFD
FFFD
0002
FFFE
0004
0002
0008
FFFE
0009
0004
0001
0005
FFFE
FFF9
0002
FFFD
0006
0006
0000
FFF7
FFFC
0006
0005
FFFF
0003
0001
FFFF
FFFD
FFF5
FFFD
FFF8
FFFD
FFFB
FFFA
FFFE
0000
FFF8
0002
FFF9
FFF5
0007
0003
FFFE
0008
FFF8
FFFF
0001
0005
FFF2
0000
FFF7
FFFF
FFFF
FFFD
0000
0001
0004
0002
0003
0003
0004
0005
000A
FFFD
FFFF
0000
0003
0003
0005
0009
0005
0000
FFFE
0001
0004
FFF1
0008
0003
000A
FFFE
0003
0006
0004
FFF7
0000
FFF7
0007
0003
0007
0006
FFF7
FFFB
0003
0001
FFF9
FFFB
0004
FFFF
FFF9
FFFF
0002
FFF3
0003
FFFF
0002
0002
FFF8
0005
0001
0007
0005
0000
FFF4
0000
0000
FFFD
0000
0006
0002
FFFE
0003
FFFA
0000
0001
FFF8
FFFE
FFFE
0005
FFF8
0004
0002
FFFA
0000
0003
FFFD
FFFD
0000
0006
FFFB
0009
000C
FFFB
0005
0008
0003
0007
0003
0000
000C
FFFF
0000
FFFE
FFFD
FFF6
0000
FFFB
FFF6
FFFC
FFFA
FFFE
0003
FFF8
0002
FFF8
FFF1
FFF8
FFF9
0005
0009
FFF6
FFFF
0011
FFFB
FFFF
FFF9
000B
FFE5
FFFF
FFEE
000E
FFF8
000A
FFFD
FFFF
0002
FFF7
0006
0002
FFF9
0000
0006
000D
0002
FFFA
000B
FFFD
0000
0001
0003
0003
FFFD
0003
0003
0011
FFFC
0001
FFF6
0008
FFEC
0005
FFF4
0009
FFFE
000E
FFF8
FFFB
FFFD
FFFC
0007
0000
FFFB
FFFE
000A
0009
0002
0004
000E
FFFB
FFFC
0007
0004
FFFB
FFFB
000A
0003
0009
000B
FFFC
0000
000B
0001
0008
0003
0001
0008
0001
FFFE
0007
FFFC
FFFD
0001
FFFA
FFFB
FFFE
FFFA
0003
0000
FFFC
0000
FFFE
FFF7
FFFA
FFFC
FFFC
000B
FFF9
FFFC
FFFC
0000
FFFF
0002
FFFD
0003
FFFB
FFFE
0000
0003
0002
0004
0004
FFFD
0004
0005
0001
0002
FFFD
0005
0004
0004
FFFF
0002
0000
FFFC
FFFE
FFFB
0000
0004
FFFA
FFFB
FFFE
0001
0005
FFFE
FFF4
0002
0001
FFFE
FFFC
0005
0004
FFFD
FFFB
0003
0005
0000
FFFA
FFFF
0002
FFFF
FFF2
0001
FFF8
FFFB
0000
0001
0003
FFFB
FFFC
000B
0006
FFFD
0008
0001
FFFC
0006
0003
FFFF
0006
FFFC
FFFC
FFFF
FFFF
0001
FFFC
FFFA
FFFD
0001
0001
FFFF
FFF9
0000
FFFF
0005
FFFF
0003
0007
FFFE
0002
0001
0001
FFFF
FFFB
FFFF
0007
0001
FFFB
0000
0007
FFF9
0004
FFFE
0002
0006
0008
FFFD
0003
FFFD
FFFD
FFFF
0000
FFF9
FFFB
0003
0008
FFFF
000B
FFFE
0003
0002
0000
FFFE
0000
0004
FFFC
FFFB
0000
FFFA
0007
0003
FFFB
FFF5
0005
FFFD
0005
FFFF
0002
0002
FFFD
0001
FFF1
0004
FFFA
FFFA
FFF8
FFFD
FFFC
FFF7
0000
FFFC
FFFD
FFF7
0003
FFF6
0000
FFFD
0004
FFFF
0008
0002
0001
FFFC
0002
0004
0007
0000
000B
FFFC
0002
FFFE
FFFF
FFFA
FFFD
0002
0002
FFFA
0003
0003
0001
000C
0000
0004
0007
0000
0000
FFFF
0005
FFFD
0002
FFFE
0006
FFFF
FFFF
0001
FFFE
FFFD
000E
0006
0002
0000
0005
0006
FFFF
FFF9
0008
FFFE
FFF9
FFF5
FFFC
FFFB
FFF7
FFFC
FFFD
FFF9
FFF5
FFF9
FFFE
FFF7
0005
0004
0000
0002
FFFF
0001
0007
FFFF
FFFF
FFF5
FFF5
0002
0000
0006
0006
FFFC
0005
FFFA
FFF0
0006
0005
FFFF
0005
0007
0004
FFFE
0007
0002
0001
0005
0008
0004
0009
FFFD
0004
0005
FFFF
0001
FFFB
0004
0000
FFFD
FFFE
FFFA
0000
FFFA
0006
FFFD
0003
0002
FFF9
0002
0000
0001
0003
FFFF
FFFF
000A
0004
FFFF
0000
FFFD
FFFF
0003
0003
FFFD
0000
0002
0006
0007
0004
FFFE
0000
FFFB
0006
0001
FFFF
0004
0004
FFFF
0004
0001
0000
0000
FFFD
FFF8
0007
FFFD
0004
0005
0000
0003
0002
FFFD
FFFE
0004
0003
0009
FFF9
FFFE
0003
0004
FFFF
FFFE
0003
FFF7
FFFE
0003
0002
0002
0003
0005
FFFC
0002
0000
FFFB
FFFA
FFFA
0001
FFFB
FFFE
FFF4
FFFF
FFFD
0005
0005
FFFB
FFFB
FFFD
0000
FFF7
FFFD
FFFD
0009
0009
0000
0006
0001
0008
0008
0000
FFF9
0000
0001
0002
0000
0008
0001
0002
FFFA
0001
0002
0005
0000
FFFF
0003
0004
0001
0001
FFFA
FFFC
0003
FFFB
FFF9
FFFD
FFF9
0005
0002
0002
0001
FFFD
FFFE
FFF8
FFFB
0000
0007
0004
0002
FFFF
FFFC
FFFF
0001
0005
FFFD
0006
0005
000B
0005
FFF9
FFFA
FFFC
0004
0001
0005
FFFF
0000
0002
0001
FFFC
FFFF
FFFC
FFFE
FFFB
0001
0001
0002
0004
FFFE
FFFC
0001
FFFF
FFFB
0001
0009
FFFB
FFFE
0001
FFFB
0004
0001
0008
0000
FFFD
0000
0002
FFFF
0003
0003
FFFA
FFFF
FFF8
0003
FFF7
FFFD
0000
FFFF
FFFC
FFF9
FFFE
0002
FFFC
FFFF
0006
0005
FFFF
000B
0004
FFFF
0007
FFFB
0000
0003
FFFE
000A
0000
FFFF
FFFE
FFFE
0005
0001
0005
FFFD
FFFB
0001
FFFB
0001
0001
0001
0002
0004
0000
0002
FFF3
FFFB
0000
0002
0003
000A
0006
0004
0002
FFF6
0003
0002
0005
FFFF
0003
0000
0001
FFFF
0002
0007
0003
0001
0004
0008
FFF8
0004
0000
FFFE
FFFB
0003
FFFC
0000
FFFB
0008
0008
0003
FFFA
0004
FFFE
FFF8
0002
000A
FFFD
FFFB
0002
FFFE
FFFC
FFFC
FFF6
0004
FFFD
FFFB
0003
FFFD
0004
FFFA
FFFF
FFFE
FFF9
FFFA
FFFE
FFF7
FFFE
FFF4
0002
FFF9
FFFE
0005
0008
FFFF
FFFD
0009
FFF8
FFFA
0006
0009
FFFE
0000
0009
0003
0006
FFF8
0009
0002
0000
0005
0005
0007
0006
FFFC
0001
0004
FFFF
0004
FFF9
0001
FFFD
0003
FFFF
FFFC
0000
FFF5
0004
FFFF
FFFA
FFFB
FFFC
0001
0002
0004
FFFC
FFFE
FFFC
FFFF
FFFA
FFFE
FFFC
FFFF
0000
0004
FFFD
0005
0008
000A
FFFD
000A
FFF9
0004
FFFB
0004
000A
FFFC
FFF2
FFFD
FFF8
FFF6
FFFB
FFFF
FFF6
FFF4
FFFF
FFFB
FFFD
FFFD
0002
0005
FFF4
FFFF
FFFD
0008
FFF9
0004
FFF5
0012
FFFF
000A
FFF2
0008
FFFA
0002
0008
FFFD
0002
FFFC
FFF8
FFF6
FFF7
FFF4
FFF5
0008
FFF7
FFF6
0003
FFF6
FFFE
FFF5
0000
0002
FFFD
FFFC
FFFC
0006
FFFD
0007
0000
0009
FFFD
000C
FFFB
FFFD
0001
0008
000F
FFFB
FFFF
0003
0002
0007
FFF8
0001
FFFD
FFFF
0006
FFFE
0004
0008
0005
0000
FFFE
FFF8
0006
FFFE
0006
FFF5
0000
FFFE
FFFD
FFF7
0005
FFFC
0009
FFFE
000A
FFFC
FFFC
000C
0002
0001
0009
FFFF
000B
FFFE
FFF9
000E
0007
0005
FFF8
0000
FFFF
000A
FFFE
FFFE
0004
0003
0000
FFFB
FFFC
FFFD
FFFB
0006
0003
0005
0000
0004
FFFD
0008
000D
FFF5
FFFE
0006
0005
FFF6
FFFD
0001
FFFD
0007
0003
FFF8
0001
FFFB
0001
FFFD
FFFE
FFF8
0003
0008
0002
FFFE
FFF9
FFF5
0009
FFFB
FFFC
FFFC
0007
FFFE
FFFE
FFFF
FFFE
FFFC
FFF8
0006
0006
0002
0003
000A
000C
FFFA
0003
000A
0006
FFFB
0002
0002
0000
FFF5
0004
FFFF
FFFF
0005
FFFA
0006
FFF4
0001
0002
0005
FFFA
0001
0001
0005
0001
FFFC
FFFA
FFFB
FFF7
FFF7
FFFB
FFF6
FFF8
FFFC
FFFC
FFF9
FFFB
FFFC
FFFA
FFFE
FFFB
0009
FFFD
FFFB
FFF7
0000
FFFE
FFFE
0000
FFFB
0001
FFFF
0004
0000
0002
FFFA
0005
0000
FFFF
0002
0000
FFF8
0004
0004
0009
FFFD
0000
0004
0003
0001
0001
FFFF
0005
FFFB
FFFA
0008
000A
FFF7
0003
FFF9
FFFE
FFFE
FFFD
FFFC
0003
0004
000E
0000
0002
FFFB
0003
0007
0008
0006
0009
0007
0005
FFF7
000A
FFFF
0007
0007
0006
0006
0007
FFF9
0008
000C
0008
FFFE
FFFF
FFFE
0002
0001
FFFC
FFFD
0005
0004
0008
0000
0000
0001
0004
0002
FFFE
FFFC
0000
FFFB
0003
FFFC
0006
0003
0000
0001
0002
FFFC
FFFE
FFFD
0000
FFFC
FFFD
0001
0002
0002
0003
0002
0004
FFFC
FFFA
0000
0005
FFF5
FFFE
FFFC
0000
FFFE
FFFC
FFFE
0003
FFFD
FFFC
FFF1
FFFE
FFFD
0005
0000
0001
FFFA
0005
FFFE
FFFD
0000
0000
FFFA
0004
0002
0008
FFFA
0006
FFFD
FFFF
0000
0006
0007
000B
FFFC
FFF9
0003
0001
FFFB
0001
FFFE
FFFE
0004
0002
0002
FFFB
0006
FFFF
0003
0002
FFFA
FFFD
FFFF
FFF7
FFFF
0003
FFFA
FFFD
FFFF
FFFF
0000
0003
0004
FFFB
FFF8
FFFC
0001
FFFF
0004
FFFB
FFFF
0005
FFFC
FFFA
FFFA
FFFC
FFFE
0001
0002
FFFF
FFFB
0003
0003
FFFD
FFFA
0000
000C
000F
0000
FFFE
0007
0002
000B
FFFF
0002
FFF8
FFFE
FFF6
000B
000E
FFF6
FFF7
0001
0003
FFFA
0006
0007
FFF8
FFF5
0008
FFFC
FFF4
FFFB
0002
000B
FFFA
FFFD
0003
FFF5
0001
FFF4
0005
FFFB
0008
FFF4
0003
FFF8
000B
FFF7
FFF7
FFF8
FFF6
0006
0008
0001
FFFE
0005
0005
FFFC
FFFF
0007
0004
0008
0009
0000
0004
FFF9
000B
0002
0008
FFF6
FFFE
FFFE
FFFF
FFF5
FFFB
0000
FFFD
FFF7
0007
FFFC
FFFB
FFF6
FFFB
0003
0004
0010
FFF9
0005
FFF1
FFF9
FFFA
0008
FFFD
000C
0008
FFFE
0002
FFF7
000B
FFF7
FFFD
FFF7
0001
FFF4
0004
FFFF
FFF8
FFFE
0001
FFF3
0013
FFF6
FFFE
FFF6
FFF6
0006
0004
0007
0001
000A
FFFA
FFF6
0001
000B
0007
000A
000B
FFFF
0006
FFF3
000D
0004
FFF6
FFFF
FFFD
0003
0003
0000
0004
FFF8
FFFA
0003
0001
0004
0008
0002
FFFE
FFFE
0002
FFFF
0004
0000
0009
000A
0007
0007
FFF9
FFF6
FFF9
0006
FFFF
FFFD
0000
0000
FFF6
FFFF
0003
0001
FFFF
FFFF
0002
FFFB
FFF7
FFFF
0001
0004
0007
FFFD
FFFD
FFFE
FFFF
0003
FFFE
FFFF
FFFD
FFFC
0006
0001
FFFB
0000
FFFC
0004
FFFB
0002
FFFB
0004
FFFB
FFFF
FFFB
FFFD
0005
0001
FFFE
FFFD
0001
FFFE
0001
0004
0002
0001
0001
FFFF
0003
0002
0004
0005
0002
0008
000A
0008
FFFF
FFFC
FFFF
0003
FFFE
FFFF
FFFC
FFFE
FFFB
0003
FFFB
0000
FFFF
FFFD
FFFF
FFFD
0001
0006
0003
0002
FFFD
0007
FFF7
FFF9
FFF8
0003
0004
FFFA
FFFC
0000
0002
0005
FFFE
FFFA
FFFB
FFFC
0001
0000
FFFF
FFFE
FFFD
0002
0004
FFFC
FFFE
0000
FFFF
FFFA
FFFF
0001
FFFC
FFFC
0000
FFFD
0002
0002
FFFF
0007
0000
FFFF
FFFC
0005
0002
0001
0006
FFFF
FFFF
FFFD
0003
FFFA
FFFF
0001
0007
0006
FFFB
FFFD
0001
0003
0008
0001
FFF7
FFFE
FFFF
0009
FFFE
0003
0001
0000
FFFA
FFFC
FFF8
FFF8
FFFA
FFFB
0002
FFFB
0001
0002
0000
FFF9
FFFB
FFFF
FFFC
FFFF
0003
0002
0007
FFFE
FFFD
FFFE
0004
0000
FFFA
0000
000B
0003
FFFE
0005
FFFF
0002
0000
FFFE
0004
FFFC
FFFC
FFFC
FFFF
FFFF
0003
0000
0007
FFFC
FFFE
FFFE
0002
FFF7
0000
FFFC
FFF6
FFFC
0000
FFFE
FFFC
0001
0004
0003
0009
FFFF
FFFF
FFF8
0001
0001
0005
0001
0004
0000
FFFB
0007
000A
0005
0005
0001
0009
FFFF
0002
0000
0001
0004
0004
0002
FFFA
FFF7
0001
0002
0003
FFFE
0003
0003
0000
FFF9
FFFA
FFFD
FFFF
0004
0003
FFFF
0007
0004
FFFE
FFFE
0001
0006
FFFF
0001
0004
0006
0001
FFFD
0006
0008
FFF7
FFFC
0001
0002
0003
0003
FFFF
FFFC
FFFB
FFFD
0000
0008
0008
FFFB
0001
0001
0009
0000
0007
0004
0004
0005
000C
0004
FFFD
0004
0000
0007
0003
0004
0002
FFFC
FFFD
FFFD
0005
0001
0006
0002
FFFB
0002
FFFF
0005
0004
0006
0005
FFFF
FFFC
FFFF
0007
0007
0001
0002
0002
0004
0009
0003
FFFE
FFFF
FFFB
0003
FFFC
0008
0000
FFF8
FFFF
0003
0007
FFFD
0002
FFF5
FFFD
0004
FFFC
0004
FFF7
FFF7
0000
0004
0000
FFFF
FFFB
0002
FFFA
FFFD
0003
FFFD
FFFE
FFFA
0000
0001
FFFC
FFFE
0000
0003
FFFE
FFF4
FFFE
0002
FFFF
FFFA
FFFA
0003
0003
FFFF
0001
0008
000A
0001
FFF9
FFF9
0001
0005
0001
0002
0008
FFFD
FFFF
FFF7
FFFF
0004
FFFC
FFFA
0005
FFF8
0003
FFFD
FFFF
0004
0000
FFF8
0002
FFFE
0003
FFFF
0005
0004
0002
FFFA
0005
0001
0004
0000
0007
0000
0001
FFFC
0005
0002
0009
0001
0009
0004
0004
0001
0007
0006
FFFD
FFFA
0008
0005
0001
FFFF
0008
FFF8
FFF5
FFF8
0006
FFFD
0003
0004
0002
FFF1
FFEE
0000
FFFC
0001
0005
FFF9
FFFB
0001
FFF1
FFF1
FFFA
0003
000A
FFFF
0005
FFF9
000A
FFFA
0004
0005
000A
0000
FFFD
FFF7
FFF7
FFFF
0004
FFFC
0008
0000
000B
FFF4
FFF7
FFFC
FFFA
0002
0001
FFFD
0003
0007
0009
FFFC
FFF9
0000
0006
0007
0001
FFFA
0006
FFFE
0002
000C
0009
FFFA
FFFA
FFF1
FFFF
FFF6
FFF9
FFEF
0005
FFF4
0004
FFFA
0005
FFFA
FFEE
000A
0008
0005
0007
000C
0002
0003
000B
000A
FFFC
000A
0005
0005
0006
FFF5
0008
0009
FFFC
FFFE
000D
0003
0006
0000
0003
FFFE
FFF6
FFFF
FFFC
FFFC
0005
FFFB
0005
FFFD
0002
FFFF
0007
0002
0003
0001
0008
0006
0000
FFF9
FFFF
0009
0005
0003
0002
FFFF
0009
FFFE
FFFF
FFFA
FFFC
FFF6
FFF9
FFFA
0005
FFF8
0007
FFF9
FFFC
FFF9
0001
0002
0008
0006
0001
0002
FFFF
FFFD
0006
0009
000E
000D
0008
FFFF
000C
FFF8
0008
0005
FFF8
0004
0008
0001
FFFD
FFFF
FFFC
FFFE
FFFE
FFEF
FFFB
0001
0005
FFFC
0000
0000
0002
0006
0002
0000
FFF7
0003
FFFD
0000
0002
0004
0001
0004
FFFC
0003
0004
0001
0001
0004
FFFA
0000
FFFD
0009
0003
0003
FFF8
FFFF
0003
0009
FFFF
0003
FFFC
FFFB
0004
0001
0004
FFFC
FFFE
0009
FFFF
0001
0001
FFF6
FFFF
FFFD
FFFD
000A
FFFA
0002
0004
FFFB
0001
FFFF
FFFE
0004
0003
0001
0000
FFF8
0006
0001
0006
FFFC
0000
0003
0001
0000
FFF6
0006
FFFF
FFFE
FFFF
FFFB
0007
0007
0006
0003
0009
FFF9
0001
FFFF
FFFA
0003
FFFE
0004
FFFF
0007
0007
FFFF
0001
0007
FFF8
FFFA
0003
FFFF
0008
FFFF
FFFB
FFFB
FFFD
FFFC
0000
FFFB
FFFE
0003
0000
0004
FFF9
0003
FFFF
0001
FFFA
0003
0004
0007
FFF9
0002
0002
0002
0000
0001
FFFB
FFFA
0007
0003
0001
FFFC
0002
0002
0001
0008
FFFA
FFFF
FFFF
FFFF
0003
FFFF
0003
0007
0003
FFFF
0002
FFFD
0000
FFFC
0006
0004
0002
FFFF
000C
FFF7
0002
FFF2
0005
0006
0000
FFFC
FFFE
0005
FFF9
0001
FFFF
FFF7
0005
0009
0007
0004
FFFD
000B
FFF0
FFF8
FFFE
0007
FFFF
0000
0000
FFFE
0006
0007
FFFE
FFFE
0001
FFFE
0005
0003
0005
FFFE
000E
0005
0000
FFFB
FFFD
0002
FFF7
FFF7
FFF9
FFFF
0002
0008
0000
FFFB
FFFF
FFF7
FFF9
FFF3
FFFE
0002
FFF8
FFFA
0004
0005
FFFE
0001
0000
0006
000A
FFFD
0002
0003
0003
FFF8
0004
FFF9
FFFD
0000
FFF9
FFF1
FFFD
FFFD
FFFC
0003
FFF7
FFF9
FFF9
FFF7
FFFB
FFF6
FFFA
0005
FFF8
FFFE
000F
0005
FFFB
FFFE
000D
FFF5
0000
FFFD
000A
000F
0010
0000
FFFC
0002
FFF4
0002
0003
FFF8
0002
0002
000B
FFFE
0003
000F
0002
FFF9
FFFF
0001
FFFC
0001
0001
0003
0003
FFF6
FFF9
FFFE
0002
FFF9
FFFD
0004
FFFE
0005
0001
FFFF
0000
0001
0007
0001
FFFF
0005
0009
0000
0007
0004
0000
0003
0002
FFFD
FFFC
FFFF
FFFC
0000
0003
FFFC
0000
0002
0008
0005
FFF9
0005
0002
0001
FFF9
0006
0001
0001
FFFF
0004
000A
0000
FFFA
0000
FFFB
FFFE
FFFD
FFFE
FFFF
FFFC
0008
0004
FFFE
FFF9
FFFD
0002
FFFD
FFFA
0003
FFFE
0000
0004
0000
0003
0009
0003
0001
0001
0002
0000
FFF5
0005
FFFF
FFFA
0000
0007
0004
FFFC
0005
0004
FFFE
0000
0008
0003
FFFE
FFFE
FFFC
0002
FFFE
0000
0009
0002
FFFF
FFFE
0007
FFFD
0006
FFFE
0003
FFFC
0003
FFFD
FFFC
0004
0003
FFFE
FFFD
0003
0000
FFFE
0004
0007
0009
FFFB
0003
0001
FFFB
0003
0003
0003
FFFF
FFFB
FFFB
FFF9
0001
FFFF
0005
FFFC
0003
FFFE
FFFB
FFF6
FFFF
0003
FFFE
FFF9
FFF9
0003
FFFF
FFF4
0001
FFFF
FFFD
FFFE
0006
0001
FFFE
FFFE
0003
FFFE
FFFA
FFFE
000A
0000
000B
0002
0005
0001
FFFE
FFFE
FFFF
FFFF
0014
000A
0006
FFFC
FFF7
FFFF
0002
0000
0004
FFFC
0007
0000
0000
FFFE
0007
0004
0008
0001
0001
FFF8
000D
0001
0003
0006
FFFF
0000
0000
0004
FFFC
0001
000D
000A
FFFF
FFFC
0002
0001
0004
FFFD
FFFF
FFF7
FFF3
0000
FFFB
FFFA
FFFE
FFFE
FFFC
FFF8
0002
FFFD
FFF9
FFFA
0001
FFFD
FFFD
FFFF
FFFB
0003
0006
FFF6
0001
0000
FFF7
0002
FFFA
0002
FFFF
0000
0003
FFFF
FFFB
000B
000A
FFFF
0004
000A
0008
0001
000C
0006
000E
FFFD
0005
000B
FFFE
FFF5
0009
0008
FFFB
0002
0003
000A
FFFD
0007
0002
0001
FFF0
0008
FFF7
0001
0005
0005
FFFC
FFF8
FFFB
FFFB
0007
FFF9
FFFB
0007
FFFB
0001
0001
FFF2
FFFC
0001
FFFC
0006
FFF4
FFF9
0004
0007
FFFE
0001
0008
0003
FFFE
0001
FFFE
FFFD
FFF8
0000
0008
FFFC
0006
0000
0003
0003
FFFF
0001
0000
0006
FFFA
FFFF
000A
0003
0000
FFFE
0006
0000
FFFB
FFFC
0000
FFF7
0000
FFFB
0001
FFFB
0000
FFFE
0001
0002
0004
0003
0003
0008
0004
0000
0004
0002
FFFF
0008
FFFD
0001
FFFF
0006
0003
0005
FFFF
FFFC
0008
FFFE
FFFB
FFFF
FFFC
0007
000D
0000
FFFD
FFFB
0002
0009
0003
FFF8
0002
FFFF
FFFC
0000
000B
FFFC
FFFD
0004
0002
0000
000A
FFFF
FFFE
FFFB
000C
0008
FFFC
0000
FFFC
0002
FFFD
FFFD
FFFC
FFFC
0002
0000
0001
FFF9
0007
FFF5
FFFC
FFF9
0000
0003
0008
0000
FFFC
0000
FFFF
0001
FFFF
0000
0002
0002
0006
000A
0001
0000
0000
FFFE
FFFE
0004
0006
FFFA
0000
0002
FFFD
0000
0002
FFF9
0002
0001
0000
0000
FFFE
FFFD
FFF8
FFFC
FFFF
FFFD
FFFD
FFFC
FFFF
FFFE
FFFE
FFF7
FFFC
0000
0000
0003
0000
0003
FFFE
FFFF
0002
0002
FFFF
FFF9
FFFC
0000
FFF9
FFF9
FFFE
0001
0004
FFFA
FFFF
FFFE
FFFA
FFFE
FFFD
0004
0001
0004
0003
FFFF
0004
FFF4
FFFE
FFFD
FFFA
0001
FFFF
FFF8
FFFC
0002
FFFE
0001
FFFD
FFFC
FFFD
0001
FFFD
FFFE
0004
0002
0001
0002
FFFF
FFFD
FFF8
FFFF
0000
FFFE
FFFF
FFFC
FFFF
FFFD
FFFC
FFFC
FFFE
0001
0005
FFFD
0005
FFFC
0001
0002
0001
0001
000A
FFFB
FFFE
0002
FFF8
0000
FFFF
0005
0001
FFFD
0000
000A
FFFA
FFFD
000D
0000
0003
0006
0002
0004
0003
FFF9
FFFC
0005
0005
0000
0001
0003
FFFD
FFFB
0004
0005
FFFB
FFFB
0000
FFFC
0000
0006
FFFC
0002
FFFA
FFFB
FFFD
FFF4
0000
FFFE
FFFE
0002
FFFE
FFFE
FFFE
0004
FFFD
0001
FFFD
FFFC
0001
FFF7
0003
0003
FFFF
FFFE
0006
FFF7
FFFC
FFFF
0006
0004
0005
FFFE
FFFB
FFFB
FFFB
0000
FFFE
FFF6
0003
000A
FFFA
0002
FFFF
FFFF
0009
0000
FFFA
FFFF
0003
0002
0000
000B
FFFD
0005
0004
0005
FFFC
FFFF
0005
FFF9
FFFC
FFFE
FFFB
0003
0003
0007
0000
0006
0002
FFFD
FFFF
0000
0004
FFFD
0001
FFFD
FFFE
0000
FFFF
FFFE
FFFE
0007
FFFE
FFFE
0001
FFF7
0000
0002
0002
0003
FFF9
FFFC
0006
000A
FFFB
FFFC
FFFA
FFFD
FFF7
0001
0001
FFFC
FFFC
0007
FFFA
FFFC
0001
0000
0008
FFFF
FFF7
0008
0000
FFFF
FFFF
FFFE
FFFB
0005
FFF3
FFFA
FFFF
FFF9
FFFE
FFF5
FFFB
0009
0009
FFFB
FFFC
0004
0004
FFF5
0006
0001
0005
0002
FFFA
0001
0003
0003
000A
0008
0002
0003
000A
0006
0005
000C
FFFD
000E
FFF9
FFF7
0001
FFFF
0000
0004
FFFD
0001
FFFE
0008
0000
0000
0005
0010
0002
0009
000B
0000
0007
FFFF
FFFD
0008
FFF7
FFF6
FFF7
000C
0003
FFF7
FFF9
FFFD
FFFC
FFFA
0002
0008
FFFD
0000
0003
FFF9
0000
0002
0006
FFFB
0000
0000
FFFF
FFFC
0005
0001
FFFD
000B
FFF4
FFFF
000B
0007
0013
0005
0008
FFFF
000E
0007
000A
0008
FFFF
000F
FFF9
FFF4
0003
0001
0009
FFFA
FFF8
0001
0002
FFFD
0004
0002
000B
0001
0002
0002
0001
FFFB
0001
FFFC
FFFE
FFFB
FFFE
FFFE
0007
FFFA
FFFF
FFFD
FFFB
0009
FFFE
0002
FFFC
FFFC
FFFD
0004
FFFD
0003
FFF6
0002
FFF7
0004
FFFA
FFF9
FFFA
0006
FFFD
FFFE
FFFF
FFFF
FFF4
0001
0000
FFF7
FFFF
0002
FFF5
FFFE
FFFF
FFF9
FFF8
FFFF
FFFA
FFFD
FFFD
0002
FFFD
0003
FFFE
0000
0001
FFFE
FFFE
FFFB
FFFE
FFFB
000A
0003
0006
0000
0006
FFFF
0003
FFFE
FFFE
FFFD
0004
0004
0007
FFFF
FFFD
0001
FFFE
0003
0001
0002
0004
FFFC
FFFE
FFFF
0000
FFF7
0002
FFFC
0000
0004
FFFC
FFFC
FFFE
0006
0005
0001
0003
0004
0002
FFFE
FFFF
FFFF
0000
0001
0001
FFFA
FFFA
FFFB
FFFE
0002
FFFE
0000
0003
FFFE
FFFB
0001
0006
0004
FFFC
FFFA
0005
FFFE
FFFA
FFFE
0007
0005
FFFD
FFFA
0002
FFFE
FFF9
0003
0001
FFFF
0003
0003
0008
FFF7
0004
0009
0003
FFF8
0002
FFFC
FFFA
FFFD
0001
FFFE
0004
FFFF
0001
FFFC
0006
FFFB
0002
FFFD
0004
0008
0000
FFF7
FFFB
FFFB
0000
FFFF
0000
FFF4
0009
FFFB
FFF6
FFF8
0009
FFFF
000A
FFFD
0002
FFFF
0009
FFF8
0003
0002
0000
FFFF
FFFC
FFFF
000B
0001
0003
FFFC
FFFF
0001
0002
FFFE
000B
FFFA
FFFE
0002
000B
FFF7
FFFD
0006
0006
0007
0007
0004
FFF9
0004
FFFE
0000
0008
FFFB
0001
0003
0006
FFF9
0006
FFF7
FFF7
FFFD
0000
FFFD
0001
0003
0006
FFFF
FFFD
FFFC
FFFE
0007
0005
0002
0006
0001
FFFE
FFF7
0005
0004
FFFF
FFFA
0009
FFFE
0006
FFFD
0007
0007
0001
0000
0000
FFF6
0003
FFF9
FFFB
FFFC
000C
FFFE
0007
0000
FFFB
FFF3
0005
0001
0005
0005
0006
0000
FFFE
FFF3
FFF9
0007
0009
0010
0003
FFFD
0004
FFF9
0005
0001
FFF8
0006
FFFE
0006
FFFD
0005
0009
0006
FFED
0000
FFF7
0008
FFFA
0007
0007
FFFA
FFFA
0006
FFF9
FFFA
0001
0002
FFF4
FFF4
FFFE
FFF7
FFFB
0005
FFF2
000D
FFF3
FFFB
FFF8
0003
0004
0002
0004
0001
FFFA
0006
FFEF
0006
FFFC
FFFC
0002
0002
0000
FFF7
FFFA
000D
0001
0001
0005
000C
FFF6
FFF7
0000
0004
FFFC
0002
FFF8
0009
0001
FFF4
FFF4
0001
0003
0003
0001
0000
0001
000B
FFF6
0000
FFF4
FFFF
FFFB
FFFF
0005
FFF3
FFF4
0001
0002
FFF8
FFFD
0000
FFF7
FFFA
FFFC
FFF9
FFFB
0000
FFF4
0007
FFF2
FFF3
FFF7
FFFD
FFFF
0004
FFFE
0000
0001
FFF7
0003
0000
FFFB
0000
0000
0001
FFFA
0000
FFFF
0003
0002
0000
0001
000E
0004
0006
0000
FFF8
FFFF
0006
FFFF
FFFD
0001
0002
FFFE
FFFE
0001
0002
FFFA
0004
FFFF
FFFD
FFFB
FFF9
0002
FFFF
FFFE
0004
0000
FFFE
FFFB
0002
0004
FFFD
FFF7
FFFE
0004
0000
0003
0004
FFF9
FFFF
FFFB
FFFF
0000
0004
0004
FFFC
FFFC
FFFF
000B
FFFB
0001
FFF6
0004
FFFD
0000
0000
0005
0005
FFF9
FFFF
FFFF
0003
0003
0005
000B
000C
000B
0003
0001
0005
FFFF
0006
0003
0002
0004
FFFF
FFF6
0002
FFFB
0002
FFFD
FFFC
0000
FFF9
0001
0002
0004
0000
0001
0001
FFF6
0000
FFF7
FFFF
FFFF
FFFF
FFFB
FFFB
0000
FFFF
FFFF
FFF8
FFFF
0001
FFFE
0001
FFFF
0003
0007
FFFD
0002
0003
FFFC
FFFD
0004
0002
0004
FFF8
0000
FFFA
FFFF
FFFE
FFFD
0002
FFFE
FFFC
FFFA
0003
FFFF
FFFD
0004
FFFB
0003
0001
FFFE
FFF6
0007
FFFF
0002
0007
000B
0006
FFFD
FFF9
0004
FFFF
0003
0000
FFFD
FFFB
FFFB
0003
FFFB
FFFC
0001
0005
0003
FFF8
0002
FFFD
FFFC
FFFD
000C
0007
FFFC
0001
0000
FFFD
FFFD
FFFB
0000
0002
FFFE
0004
0000
0000
0001
0002
0000
0009
0000
0005
0007
0006
FFFF
FFFF
0006
0001
0004
FFFF
0002
0002
0001
0000
0006
0006
FFFF
FFFB
0005
0004
FFFB
FFFE
FFFC
0001
0001
FFFD
FFF5
FFFE
0005
FFF5
FFFF
FFF9
0001
0000
0001
0001
0001
FFFD
0005
0005
0009
000B
FFFA
0001
0001
000C
0003
0002
0000
0003
0001
0002
FFFF
0000
0006
FFF6
FFFD
FFFF
0000
FFFD
0001
FFFF
FFFE
FFFE
0002
0002
0001
0002
0005
FFFA
0002
FFFE
0004
FFF5
FFFD
0001
0002
0008
FFFF
0000
0002
FFFD
0003
0003
FFF9
FFFC
FFFD
0001
FFFD
FFFE
0003
0000
0003
FFF5
0000
FFFF
0003
0001
0008
0002
0003
0000
FFFF
0002
0001
0008
FFFD
FFFF
0008
0003
0006
FFFD
FFFE
FFFD
0002
0005
0008
0001
FFF8
FFFB
0001
FFFF
FFFD
0001
000B
FFFA
0000
FFFA
0007
FFFC
0008
0001
0002
0005
0001
0004
0004
FFFD
0002
FFFF
000D
FFFD
0009
0002
FFFA
0000
FFFD
0001
0007
0003
FFF8
FFFC
0001
FFFF
FFFF
0003
FFFB
0009
0000
FFFF
FFFD
0005
FFFD
FFFF
FFFC
0002
0000
FFFD
0004
FFFD
0002
0005
FFFF
FFFD
0001
FFFF
0009
0003
FFFF
FFFC
0001
0000
0009
FFFC
FFFD
FFFF
0000
FFF5
FFFF
FFFB
FFFB
FFFA
FFFB
0002
FFFD
FFFC
FFFD
FFFC
FFF8
0005
0002
0004
000A
0008
0003
FFF6
0008
0001
0003
FFF6
0004
0003
0002
FFF6
0003
0002
FFFD
FFF9
0000
0005
FFFF
0000
FFFF
000A
0001
FFFF
0000
FFFD
FFFB
0005
0007
FFFF
FFFE
FFF6
0003
0000
0004
FFFF
0002
FFF7
0002
0000
FFFA
FFF7
0004
0000
FFF6
FFFD
0007
FFF7
0000
FFF9
FFF6
FFFB
0003
0005
FFFC
0005
0006
FFFB
FFF1
FFFF
FFFD
0003
0003
0000
FFF5
0005
FFFE
FFFC
0000
0001
000E
FFFC
0003
FFFE
0000
FFFD
0005
0001
0009
FFFE
FFFF
FFFE
FFFA
FFFF
0001
FFFF
0002
0003
0005
0001
FFFA
0002
FFFA
FFFD
FFF6
FFFE
0002
FFFB
0000
0001
0001
FFF8
0005
0001
FFFD
0001
0002
FFFE
FFF9
FFFB
FFFE
FFFF
FFF6
FFFC
FFFC
0000
FFFD
FFF3
0001
FFFA
FFF8
0001
0002
FFFF
FFFC
FFFE
0003
0008
0004
0004
0000
000C
0005
0002
FFFC
0000
FFFF
0003
FFFE
0001
0004
FFFE
0001
FFFB
0005
0002
FFFE
FFF6
0008
FFF9
FFF4
0002
FFFF
FFFF
0004
FFFF
0000
FFFF
FFFD
FFF3
FFFF
FFFB
0000
0001
FFFF
0000
0002
FFF5
FFFF
FFF9
0000
FFFE
0001
0006
0002
0000
0001
FFF8
FFFE
0005
FFF9
FFFA
FFF7
FFF8
FFF0
FFFA
0003
FFFC
0005
FFFD
0004
000D
FFFF
0006
0009
0003
0005
0006
0004
000C
FFFD
0007
0005
0000
0006
FFF7
FFFF
FFFE
0001
0003
FFFE
0003
0003
0001
FFFE
FFFC
0002
FFFE
FFFE
0000
FFFC
0000
0004
0004
FFFE
FFFF
FFF5
0000
FFF4
FFF7
FFF8
FFF7
FFFD
FFF9
FFFC
0009
FFFE
0004
0001
0000
FFF9
FFFB
0000
0002
FFFB
FFF9
FFFA
0000
0006
0003
0008
FFFB
FFF8
0003
000A
0003
0004
FFFE
000A
FFFC
000E
0003
0002
0001
0004
0001
0002
FFF9
0004
0004
0005
0001
FFFA
FFFB
0006
FFFC
0002
FFF9
FFFC
FFFC
FFFB
FFFC
FFFF
0002
FFFE
0003
0007
0002
0000
0006
FFFF
0001
0004
FFFF
FFFD
0002
0000
0009
0008
FFFC
0002
FFFD
FFFF
0004
0001
FFFF
FFFE
0007
0005
0001
FFFB
0008
FFF9
FFFC
0005
0001
0001
0000
FFFE
0004
FFFF
FFF8
FFF4
FFFC
0004
FFFD
0003
FFFC
FFFE
FFF9
FFFE
FFFF
0000
FFFE
FFFE
FFF9
0000
FFFB
0004
FFEF
0002
FFF7
0004
FFFD
0004
FFFE
FFFF
FFFB
FFFB
0002
0006
FFFB
FFFF
0008
0003
FFFB
000B
0006
FFF6
FFFE
0004
0003
0003
FFF8
0004
0005
0011
0003
FFF9
FFFA
0003
FFFB
000A
FFF8
0007
0000
000B
FFFC
0004
FFFF
0001
0000
FFFA
FFFB
FFF3
0000
0002
0006
FFF8
0000
FFF7
FFF7
0001
FFF5
0001
0001
0002
0001
0006
0004
FFF9
0000
000D
FFED
0001
FFF5
0004
0002
000C
0001
0004
0001
FFF6
0002
FFFB
FFFA
FFFB
0003
0008
FFFB
FFFC
0003
FFF2
FFFB
0001
0004
FFFA
FFFA
FFFE
0004
0008
FFFE
FFFD
FFFB
0009
FFED
0003
FFF5
0003
FFFE
0009
FFF5
0000
0000
FFEF
0003
0001
FFF2
FFFD
0006
0006
0002
0001
0004
FFF3
FFFC
FFFF
0004
FFFD
FFF9
0000
FFFF
000A
0009
FFF7
FFFA
0004
0001
0004
FFFD
000B
0008
0010
0000
0004
0001
FFFD
0005
FFFE
FFF7
FFF5
0000
0008
FFFE
FFFD
0004
FFFD
FFF3
0001
FFFA
0004
000A
FFFF
0007
0001
FFFD
FFFD
FFFF
0002
0000
FFFF
FFFD
FFFD
0003
0001
0003
0006
0000
0008
0001
FFFB
0004
FFFC
FFFE
FFFB
0009
FFFF
FFFD
FFFD
FFFE
FFFF
FFFD
0001
0007
FFF9
FFF8
FFF8
0003
0008
0005
FFFC
0000
0001
0002
FFF3
FFFC
FFFC
0001
FFFD
0003
0008
FFFD
FFFE
0007
FFFE
0002
FFFD
0008
FFFD
0003
0004
0002
0002
FFFD
FFFE
0005
0000
FFF6
0006
FFFF
FFFD
0006
FFFE
0000
000A
0001
FFFC
0000
0009
0008
FFF9
0005
0002
FFFD
FFFC
0006
0001
FFFB
0003
0008
FFFE
FFFA
0000
0001
FFFE
FFFF
0001
0001
FFFF
0000
0006
0005
FFFD
0002
0002
0002
0007
FFFC
0007
0003
000B
0001
0005
FFFD
FFFF
FFFD
FFFC
0003
FFFA
FFFB
0003
0000
0006
FFF7
0002
FFF8
FFFC
0003
0003
0002
FFFE
0000
FFFA
FFFD
FFFC
0002
0004
FFF8
0001
FFFF
FFFF
FFF9
FFFD
0004
FFFC
FFFE
0002
FFFD
FFFB
FFF8
FFFF
0001
FFFB
0005
0001
FFF7
FFFF
0002
FFFF
FFFE
FFFC
0005
FFFD
FFFB
0004
FFFB
0003
FFFC
0000
0003
0002
FFFF
0011
000A
000B
FFFB
FFFA
0004
FFF8
0006
0005
FFF6
0005
0004
0005
0000
0006
0009
0001
FFFF
0004
FFFB
000A
FFFB
0005
0007
FFFF
0006
0001
0005
FFFD
0006
0004
0004
0004
0005
FFF8
0009
0001
0003
0001
0000
FFF5
FFFC
FFFF
FFF9
FFF8
FFFF
0000
FFFF
FFFF
FFFB
FFF9
FFF9
FFFD
0007
FFF8
0002
0002
0001
FFFE
FFFB
FFFE
FFFB
FFF8
0003
0000
FFFE
0003
FFFB
FFFD
FFFF
FFFB
FFFF
0005
0004
0004
0006
0002
FFFD
FFFF
FFFD
0005
0003
FFFF
0006
FFFD
FFFA
0001
0001
0005
000A
0006
FFFD
0004
0007
FFFA
0002
FFFC
0006
0006
FFFA
FFFD
0005
FFFC
0001
0007
0006
FFFE
FFFE
000A
0006
0001
0006
0002
0005
FFFD
0000
FFFC
FFFC
FFFA
0000
FFFE
FFFD
0003
0002
0005
0002
FFFD
0000
FFFA
0004
FFFC
FFFE
0000
0008
0003
0002
0007
0005
0004
0002
FFFB
0014
FFFE
0005
0006
FFFE
FFFC
0005
0002
FFFE
0002
FFFC
FFFD
FFFB
0005
0001
0000
0002
FFF3
FFFA
0002
FFF5
FFFC
0002
0001
0006
0002
FFFD
0001
0008
0003
0007
0001
0008
0001
0008
FFFD
0008
0001
0008
0004
0000
0001
FFF5
0000
0004
0011
0001
0002
0000
0002
0000
0000
0009
0000
FFF8
0000
0001
FFFB
0003
FFFE
FFF2
FFFD
FFFF
FFFF
0000
0001
0000
0002
0002
0002
FFFE
0001
0001
0000
0002
0001
FFFA
0002
FFFE
0004
FFFC
FFFC
FFFC
0000
0000
0003
0006
0003
0005
FFFC
FFFF
0004
FFFE
0003
0000
0004
0004
0002
0008
0001
0003
FFFF
0000
0006
0001
0004
FFFF
FFFF
0005
FFFE
0000
FFFC
FFFF
0005
0003
0000
0009
FFFB
FFF9
FFF9
0005
FFFC
FFFC
FFFD
FFF7
FFFD
FFFB
FFFE
FFF4
FFF6
0005
0003
FFF8
0001
0004
FFF9
FFFF
0005
0004
0002
0001
FFFF
FFFF
0001
FFF9
0001
FFFB
FFFF
0002
0003
FFFE
FFFF
0000
0006
0001
0007
0007
0004
0000
FFF9
FFF5
0002
FFFE
FFFC
0009
0004
FFFC
0002
FFFA
0004
0005
FFFA
0005
0005
0000
FFF8
0000
0003
0004
0002
0008
0002
FFFE
FFF7
FFFE
0001
FFFE
FFFE
FFF7
FFFA
FFFA
FFF7
FFF7
FFF4
FFFB
0000
FFFF
FFFF
FFFC
FFFB
0002
FFFF
0002
FFFD
FFFD
FFFF
FFFE
FFFA
FFFA
FFFC
0001
FFFE
FFFD
FFFC
FFFD
0005
FFFB
0006
0002
0005
0006
0000
0006
0004
0005
0003
0006
FFFE
FFFF
0000
0003
FFFD
0001
0004
0000
0000
0004
0002
FFFB
FFFD
0003
FFFF
0002
FFF9
0002
0002
FFFC
FFFC
0002
0005
FFFF
FFF8
FFF8
FFFC
0001
FFF9
FFFE
FFFC
FFFF
FFFA
FFFA
FFFF
0002
FFF5
FFFE
FFFE
FFF7
0005
0000
FFFD
FFF8
0001
FFFC
0001
FFFA
0004
FFFB
000A
0002
FFFE
0003
FFFD
0005
0001
FFF7
000B
0009
FFFF
FFFC
0002
000C
FFFA
0008
0004
0003
0005
FFF9
0003
0005
0001
0000
FFF7
0001
FFFF
0000
FFFE
0001
0006
0001
FFFF
0006
0001
0006
0008
FFFE
0001
0007
0002
0002
000A
FFFB
FFFD
0002
0007
FFFB
FFFC
FFFE
0003
FFFF
FFFD
FFFD
0006
0000
FFF4
0003
FFF8
0007
FFF9
0004
0003
0001
0003
0007
0006
FFF3
FFFD
0006
0000
0003
FFF6
FFFB
FFF9
000B
FFFA
FFF3
FFF5
FFFF
FFFD
FFF4
FFFD
FFFD
FFF3
FFFD
0002
0005
FFF7
0006
FFFC
000C
FFFB
000B
0001
FFFB
0001
000A
000C
0001
0001
FFFA
FFFD
0003
FFF5
FFFD
FFF7
000D
FFFF
FFF4
FFFC
FFFD
FFF9
FFFA
FFF8
0002
FFF8
FFFD
FFFF
FFFF
FFF9
FFFB
0002
FFFC
FFFF
FFF5
0000
0007
FFFD
FFFE
0002
0005
FFFB
FFFE
0006
000B
000C
0003
0000
0007
000E
0001
0000
0004
FFFC
0009
0001
0004
0009
0009
0000
0002
FFF5
0004
0006
0002
FFFD
FFFC
0004
0007
0005
000D
0009
FFFE
FFFC
0000
FFFF
FFFA
FFFA
FFFD
FFF5
0007
0004
FFF2
FFFA
FFFC
FFFF
0000
FFFD
0001
FFF8
0004
000B
FFFE
FFFF
FFFF
0001
FFFF
FFFE
FFFF
0004
0008
0007
0004
FFFB
FFFE
0004
FFFE
FFFE
0001
FFFC
FFFD
FFFD
FFFA
FFFA
0006
0004
0002
FFFC
FFFB
0005
0000
FFFF
FFFD
0004
FFFA
FFF7
FFF2
FFF7
FFF8
FFF7
FFF3
0004
FFFA
0009
FFFC
0005
0000
FFF0
000A
0008
FFFD
0006
000A
0005
0001
000B
0004
FFFE
0003
0007
0006
0002
FFF3
0006
0009
0002
0003
FFFE
0003
0000
0001
0004
0002
0002
0001
FFFD
0002
0001
0001
FFFF
FFFA
FFF7
FFF8
0005
FFFC
0003
0002
FFF7
0001
0006
FFFE
0000
FFF8
FFFE
0000
FFFD
0003
0000
FFFD
0002
0003
FFF9
0000
0003
0004
FFFE
0006
0002
0006
FFFC
0002
000D
FFFD
FFFB
FFFF
0006
FFFB
0003
FFFF
FFFA
FFFB
FFFA
FFF8
FFF7
FFFF
0001
0001
FFFD
FFF6
0000
0003
0001
FFFE
FFFE
FFFB
FFFA
0004
0004
0000
FFF8
FFFC
FFFE
0002
FFF8
0002
FFFC
FFFA
0001
0004
0002
FFF7
000B
FFFE
FFF8
FFFA
0003
FFFB
FFFD
FFFF
FFFE
FFFA
0000
FFFC
FFFE
FFFA
0008
FFF3
0009
FFFD
0001
0002
0008
FFF5
FFF9
FFFA
FFFE
0000
0006
FFF7
FFFD
FFFB
FFF8
0000
0006
0003
0009
0007
0003
FFF8
0006
FFF8
0005
0000
0007
FFFF
0000
FFFB
0002
FFFC
FFFC
0001
FFFE
0002
FFFF
FFFA
0007
0003
0000
0003
0003
FFF8
0004
0006
0005
0005
FFFE
0000
FFFE
0002
0002
FFFD
0009
FFFA
0001
0009
0007
0001
0001
FFFA
0005
FFF9
0002
FFFE
0005
FFFF
0006
FFFB
0000
FFFB
0003
0006
0004
0004
FFFB
0003
FFFF
FFFA
0000
0002
FFFF
0004
0005
FFFD
000A
FFFF
0004
FFFE
0002
FFF6
FFF7
FFFB
0002
FFF7
FFFB
0002
0000
FFFD
0004
FFF8
0000
FFFC
FFFE
0000
FFFE
0003
0006
FFFF
FFFC
0008
0000
FFFD
0003
FFFD
0001
0007
0004
FFFC
FFFE
FFFC
FFFF
0004
FFFF
0003
0005
FFFB
0002
0000
0001
0005
0003
0003
FFFC
0003
FFFC
0003
FFFE
FFFD
FFF8
FFFC
FFFF
FFFB
0002
0000
FFFF
0002
0000
0003
FFFA
0002
FFFF
0003
0005
FFFD
0004
0001
FFFD
FFFE
FFFD
0002
0003
000B
000B
0006
FFFD
FFFD
0007
FFFE
FFFC
000D
FFFF
FFFE
FFFB
FFF2
FFFD
0003
0004
000C
0000
FFFA
0002
FFFE
FFFC
FFFE
0001
0005
0006
FFFF
0000
0002
FFFE
FFFF
0002
0002
0004
FFFC
0000
FFFD
0000
0002
0000
0002
FFFF
FFFE
0000
FFFD
0000
FFFF
0000
FFF5
FFFF
FFFA
FFFF
0000
0000
0000
FFF9
FFFE
0002
0006
FFFA
0001
0003
FFFF
0003
0002
FFFD
0001
0001
0002
0000
0003
0001
0000
FFFB
0000
FFFE
000B
FFFF
0007
FFFD
FFFF
0000
0005
0003
FFFC
0001
FFFD
0008
FFFF
FFFD
FFFC
FFFA
FFFD
FFFF
FFFE
0002
FFFB
0004
0004
0000
0002
FFFC
0003
FFFE
0000
0005
0001
0004
FFFE
0006
FFFF
0009
000A
0001
0000
FFFF
FFF8
FFFE
0005
0000
FFFD
0000
FFFE
FFFD
0003
FFFD
FFF7
0004
0000
0007
0000
0001
0001
0001
FFFE
FFFC
0004
0003
0000
0007
0001
0008
0009
0003
FFFD
0003
0001
FFFE
FFFA
0000
0002
FFF9
FFFE
FFFF
0004
FFFC
FFFD
0004
0001
FFFC
0009
0003
0000
FFFF
0003
0002
0000
FFFA
FFFB
FFFD
FFFD
0000
0003
0006
0004
FFFB
FFFC
FFFC
FFFF
FFF8
0003
0003
0006
0007
FFFB
0002
0001
FFFF
FFF3
0007
FFFD
0004
FFFF
0004
0002
0001
FFFA
FFFA
0001
FFFE
FFFD
FFFC
FFFE
FFF6
FFFB
0001
FFFF
000E
0007
0002
0001
0003
0001
0008
0005
0004
FFFE
FFFB
FFF8
0002
FFF8
FFFF
0001
FFFB
0001
FFF8
0001
0003
FFF9
0000
0005
0005
FFFA
0004
FFFE
FFF8
FFFF
0012
0003
FFFB
0004
0009
0001
0009
FFFC
0007
0008
FFFB
FFFE
0000
FFFA
0003
FFFC
0001
0003
FFFE
0004
0002
0000
0002
FFFF
FFFB
0006
0009
0005
0002
FFFF
FFFF
FFF7
0004
0003
0002
FFFC
0001
0001
0003
FFFA
0003
0000
FFFE
0007
FFFD
0002
0000
0004
0002
0004
0000
0003
0004
0002
FFFE
FFFB
FFFE
0004
0000
0004
0007
0001
FFFD
FFFE
0001
FFFF
FFF8
FFFB
0000
FFFF
FFFF
FFFE
FFFC
FFFF
0003
0001
FFFD
0002
0003
0000
0006
0001
000C
FFFA
000A
FFFA
FFF8
FFFA
0004
0004
0005
0000
0003
0003
0003
FFFD
0003
0006
0001
0007
0004
FFFD
0001
FFFB
0003
FFFC
0000
FFFD
FFFF
FFF8
0004
0007
0001
FFFB
0007
FFFA
0002
0002
0002
FFF6
000A
FFFD
FFFE
000F
0001
FFFF
FFFF
0008
000B
000A
0003
0009
FFFF
0004
0004
0000
0005
FFFA
FFFA
0001
0003
0000
0002
FFFE
0002
FFFB
0004
FFF8
FFFE
0002
0005
FFFC
0002
FFFF
0002
0006
0003
FFFF
0008
000C
0008
0001
0002
0005
0000
0005
0007
0000
0002
0004
0002
0001
0004
FFFF
0004
FFF5
FFFA
0005
FFFF
FFFF
FFF9
FFF9
0001
0005
FFFE
0000
FFFD
0000
0000
FFFD
0004
FFFD
0003
FFFC
FFF8
0001
0003
FFFD
FFF6
0004
FFFD
FFFB
0008
FFF8
0001
FFF4
FFF8
FFFB
FFFA
FFFB
FFF9
0003
0007
FFFB
FFF9
FFF7
FFF3
0003
FFFF
FFFF
0007
0001
0006
FFF7
000C
0004
0006
0000
0008
0003
0004
FFF2
FFFE
0003
FFF7
FFFD
0000
0006
0004
0000
0000
0001
0007
FFFB
FFFF
FFFE
FFFD
0001
0008
FFFD
FFFF
FFF6
0002
FFFC
FFFE
FFFE
0004
FFFD
FFFA
FFFD
FFF7
FFF6
0004
0004
FFFB
FFFA
0009
FFF9
0005
FFFD
FFFA
FFF8
0003
0007
0000
0002
0006
FFFE
FFF5
FFFD
FFFB
0003
FFFF
0003
FFFA
0004
0000
FFFD
0003
FFFB
000E
0004
0004
0001
0001
FFFC
FFFE
0003
0008
FFFE
FFFD
0004
FFFF
0004
0005
0002
FFF9
0007
0001
0009
0001
0001
0004
FFFA
FFFE
FFFC
0004
FFFC
FFFF
0002
FFF8
FFFD
0008
FFFE
FFFE
0001
FFFC
0001
FFFE
FFFD
FFF4
0006
0003
0007
0001
0009
FFFD
0008
FFF8
0008
FFF5
0003
0000
FFFE
FFFB
FFFE
FFF7
FFF7
FFFD
FFF8
0001
0000
FFFD
FFFB
FFF9
FFEE
FFFB
0000
FFF1
0008
FFF1
0002
0002
FFFC
0000
0005
FFFF
0001
0003
0002
FFF8
FFFC
FFF6
FFFF
FFFF
0000
0002
FFFD
0003
0005
FFFF
0003
0002
0003
FFFD
FFFB
0007
0002
FFFF
FFFD
0002
FFFE
FFFB
FFF4
0000
0007
0000
0002
FFFC
FFFF
FFFC
0004
FFFF
0005
FFF9
FFF7
FFFF
0001
0005
0000
FFFE
FFF9
0005
FFFC
0005
FFFA
FFF8
0001
FFFC
FFFC
0002
FFFA
FFFA
0004
FFFE
0001
FFFF
0002
0000
FFFD
0002
FFFC
0008
0001
0000
FFFF
0004
0001
FFFA
0004
FFFD
FFFD
FFFA
0004
FFFA
0006
0002
FFFE
FFF8
FFF9
0003
FFFB
0000
0003
0001
0006
FFFE
FFFF
FFF9
0005
FFFE
0000
FFF5
000C
FFFF
0004
FFF7
FFFC
0000
FFFC
0002
0002
0000
FFFD
0003
0008
0005
FFFC
0008
FFFE
0007
0003
FFFF
FFF4
0000
FFFD
0000
FFFA
FFFF
FFFF
FFF8
0005
0002
0004
0004
0004
0003
0007
FFFD
0002
FFFB
FFFE
000A
0001
FFFE
FFFA
FFFD
0008
FFFB
FFFE
FFF8
0002
0007
FFF9
0000
FFF5
FFF5
FFFB
FFFF
FFFF
FFF6
FFFD
0003
FFFB
FFF8
FFFD
0000
0001
FFFE
FFFA
0007
0000
0008
0001
0001
FFFE
0000
0003
0004
FFF6
0003
0002
0003
FFF3
0003
0004
0004
0000
0006
FFFC
0008
0001
000A
000B
FFEF
0000
FFFF
FFFF
0003
0008
FFFC
FFFF
FFFE
0001
0000
0005
0000
FFFE
FFFE
0001
0001
0009
FFFD
FFFF
0005
0000
0007
FFF9
FFFA
FFFB
FFFE
FFFD
0002
0001
FFFF
0002
0006
0006
0000
FFFD
000A
FFF3
0005
FFF6
0005
FFFC
0001
FFFC
FFF7
FFFB
FFFE
0004
FFFF
FFF3
0006
FFFF
0003
FFF4
FFFF
0002
FFF5
FFF6
0001
0001
0000
FFFC
0000
0000
000B
0005
FFF8
FFFA
0006
FFF5
0000
FFF7
000C
0004
0007
FFFD
0006
FFF6
FFF5
0003
0002
FFF2
FFF1
0004
000E
0009
0005
FFFF
FFF2
0000
0000
0000
FFFF
0000
0002
0009
000A
0003
0002
0001
0008
FFFF
0005
FFF2
000B
FFFE
000E
FFF9
0001
FFFC
FFF5
000A
0002
FFF0
FFF5
0001
000B
FFFD
FFFE
FFFA
FFFA
FFFA
0000
0001
FFFF
0001
FFFE
0002
000F
0003
FFF9
FFF5
0009
FFF2
0005
FFFD
0004
0002
0013
FFF7
FFF7
FFFB
FFFF
0005
0003
FFFD
0004
0004
0010
FFF8
FFFB
000A
FFFD
FFFA
0001
0004
0001
FFFE
0007
0000
0004
0000
FFFA
FFFF
0000
FFFD
FFFC
0001
0005
0004
0005
0001
FFF7
0007
0008
FFFF
FFFF
0000
0005
0000
0001
FFFB
0002
FFFF
FFFF
FFFE
FFFF
0003
FFFB
0008
0001
FFFD
FFFF
0004
0005
0003
FFF7
0002
0002
0001
FFF4
FFF8
FFFB
0000
FFFF
0000
000C
0000
0001
0006
FFF9
FFFC
FFF9
0006
FFFA
FFFD
0006
000A
0001
FFFD
FFFD
0003
FFFE
FFFB
0001
0005
FFFE
0008
0006
0004
0006
0000
0004
0008
0003
0000
FFFF
FFFF
FFFD
FFFC
0000
0000
0002
FFFF
0001
0002
0003
0004
0000
FFFC
0001
FFFB
FFFE
0001
FFFC
0004
0007
0009
0002
0005
0008
0004
0003
0001
0007
0003
0008
0001
0000
0001
0000
FFFE
0003
0005
0005
FFFF
0004
0002
0004
FFFF
0003
FFFC
FFFB
0000
0002
0005
FFFB
FFFE
0004
FFFE
FFF1
0006
0003
FFFA
FFFA
FFFC
0003
FFF8
0004
0002
0005
FFFA
FFFE
0003
0002
FFF6
0001
0005
FFFF
0002
0002
0005
FFFD
0005
FFFF
0001
0003
FFFE
0000
FFFD
0003
FFFB
0009
FFFA
FFFE
FFFF
0003
FFFF
0000
0001
FFFE
FFF7
0003
0004
FFFB
0000
FFFB
FFF7
0002
FFFD
FFFE
FFFF
0004
FFFE
FFFB
FFF5
FFFE
FFFF
FFFB
FFFE
FFFE
0002
0000
0000
FFFB
FFF4
0008
0004
FFFC
FFF6
000B
FFFF
FFFD
0001
000B
FFF7
FFF7
0008
0003
FFF7
FFFF
0009
0005
0004
0007
0007
0001
FFFB
0006
0004
0007
FFFA
0003
0006
FFFF
FFFB
0002
0005
FFFD
0003
FFFE
000B
0004
0003
000A
FFFE
0004
0001
0002
FFFA
FFFD
0005
FFFD
FFFE
0005
0003
0001
FFFF
0004
0000
FFF9
0000
FFFF
FFFF
0000
FFF9
0007
FFFB
0000
FFFB
FFFC
FFFC
0001
FFFD
FFFD
FFFD
000D
FFFC
0000
FFFF
FFFC
0005
0008
FFFD
0007
0002
0007
FFFF
0004
000F
FFFF
0004
0004
0006
FFFF
FFF8
0001
0006
000E
FFFB
0002
FFFE
0002
FFFB
0007
0001
0002
FFFC
000A
0002
FFFE
FFFB
0001
0007
0000
0006
FFFD
FFFA
FFFD
0001
0001
0004
0007
0001
FFFF
FFFA
0008
FFFA
0003
FFFB
0007
FFFA
0001
FFF9
FFFE
FFF9
FFFF
FFFE
0000
FFFE
0000
FFFB
FFFD
FFFC
000A
FFFE
FFFB
0002
FFFF
0001
0002
FFFB
FFF9
0004
0001
0001
0007
FFF7
0003
FFF6
FFFF
FFF6
0005
0000
0009
FFFF
0005
FFFF
FFFE
0003
0009
FFFC
FFFE
0000
0003
0007
FFFC
FFFF
FFFD
FFF7
FFFA
0002
0007
FFFB
FFFD
0005
0001
0000
FFFF
FFFC
0001
0003
FFFA
FFFC
FFFF
FFF6
0004
FFFA
FFFD
FFFB
0001
FFFC
0005
0004
0001
0000
FFFC
0005
FFFF
0000
FFFE
0003
0004
FFFF
FFFE
0001
0002
0001
0001
FFFD
FFFD
0001
FFFF
FFFC
0002
0002
FFFC
000A
0000
0001
0001
FFFA
0003
0000
0000
0006
FFFF
FFFA
FFFF
0001
FFFC
FFFD
FFFD
FFF2
FFFA
0000
FFFF
FFF6
FFF7
FFFC
FFFB
FFFB
FFFD
FFFD
FFF2
FFFE
0001
FFFE
0007
FFFF
FFFF
0000
FFFC
FFFA
0001
0000
FFFD
FFFC
0002
0000
FFFB
FFFB
0005
0004
0005
0003
0000
0003
FFFF
FFFA
FFFD
FFFB
0003
0007
0001
0001
0003
FFFE
0002
0003
FFFC
0002
FFFE
0000
FFFE
FFF8
0006
FFFE
FFFE
0006
0000
FFFF
FFF6
0003
FFFD
0002
FFFA
0001
FFFD
0001
FFFE
FFF7
FFF9
0001
FFFD
FFFB
0001
FFFD
FFFC
0001
0002
0003
0007
FFFC
FFFC
0002
FFF4
FFFC
FFFB
0002
FFFB
0002
FFFD
0001
FFF6
0004
0004
0001
FFFE
0007
FFFF
0000
FFFE
FFFB
FFF9
FFFC
0005
FFFF
0001
FFF7
FFFD
FFFF
FFFC
0004
0004
0003
000D
FFFE
0002
FFFF
0003
0006
FFF7
0000
FFFC
FFFC
FFFD
0007
FFFF
FFFB
FFFC
FFF8
0003
0007
FFFF
FFF9
0004
0002
FFFE
FFFD
0000
0005
FFFB
FFFD
FFFE
FFFC
0003
FFFF
0008
FFF9
0008
FFFF
FFF9
FFFA
0000
FFFE
0002
FFF7
0008
0003
FFFB
0001
0000
FFF1
0003
0006
0003
0000
FFFF
0004
FFFD
0001
0004
0008
FFFE
FFFE
0004
FFFB
0004
FFFA
FFFA
FFFA
FFF8
FFFB
FFF8
0002
0006
FFFC
0001
0006
FFFF
0008
0001
0001
FFFF
000E
FFF7
0003
0005
FFFD
FFFC
0004
0003
0006
0003
FFFE
0009
FFFC
0003
FFFD
0005
0005
0002
0000
FFFD
FFFF
FFF9
FFF1
0001
0003
0003
FFF7
FFF9
0004
0000
0006
0004
0000
000B
0005
0000
0006
0004
000D
FFF5
0007
0001
0005
0007
FFFF
0005
FFFC
FFFD
0003
FFF7
0004
0009
0004
FFF8
0002
0004
FFFD
0007
FFFB
0001
000C
FFFD
FFFB
0001
0003
000D
0004
0007
0005
0008
0005
FFFB
FFFE
0001
0003
FFFA
0004
0002
FFFE
0003
0006
0004
FFFA
FFF9
FFFE
0006
FFFE
FFFA
0009
0005
0005
000B
FFFE
0003
0006
FFFD
0008
FFF6
FFFA
FFF4
0006
000F
FFF8
0004
FFFF
FFFF
FFFB
FFFF
FFFB
0000
000B
0005
0004
FFFB
0009
000B
0004
0000
FFF9
0000
0007
0007
FFFF
FFFF
0008
0001
FFFB
0008
0000
000E
0002
0004
0003
000C
0004
FFF7
FFFE
FFFE
000B
FFF9
0003
0000
0004
0003
0004
0000
0005
FFFF
FFFE
0003
0005
0007
0004
0001
0005
FFFD
0001
0006
FFFA
0000
0004
FFFF
FFFA
0008
FFFF
FFFF
0001
FFFC
000C
FFFA
FFFF
FFFF
0008
FFF8
0001
FFFC
FFFD
FFF7
FFF6
FFF9
FFFA
FFF1
FFF7
0006
0002
0007
FFFB
0003
0005
FFF7
0008
0007
FFFF
0003
000A
0006
0007
0005
0004
FFF8
FFF9
0003
0003
0001
FFF4
0001
0006
0003
FFFF
0004
0005
0001
0001
0006
FFFE
0000
0001
0005
0004
0004
0007
FFFF
FFFE
FFFF
FFF9
FFFC
FFFE
0004
0004
FFFD
0004
0007
0003
FFFF
FFFD
FFFC
0001
0001
0002
FFF5
0001
FFFD
0001
0000
0002
FFFE
0002
FFFD
0002
FFF9
000B
0003
FFFF
0003
FFFA
FFF9
0003
0000
0002
FFFC
0000
0004
FFF7
FFF7
0001
FFF7
FFFA
FFF9
0004
FFFA
FFF7
0002
0005
FFF9
0001
0002
FFFC
0001
0003
0008
FFFD
FFFE
FFFD
0004
0001
0004
0000
FFFC
FFFE
FFFE
FFFE
FFFC
FFFD
0008
FFFD
FFFF
FFF9
0000
0002
FFF9
0001
0003
FFF9
FFFF
0001
0001
0004
0002
FFFC
0003
FFFF
FFFC
0001
000B
FFF7
FFF9
0000
FFFF
FFFF
0006
FFFA
0001
0003
FFFF
0002
0007
0002
0003
0005
0005
FFF8
0000
0001
FFFB
0000
0004
FFFE
0000
FFFC
0006
FFFE
FFF9
FFF8
0007
0003
0009
FFFA
0005
0004
0002
0002
0005
FFFC
0003
0003
0007
0003
0001
0000
FFFD
0003
FFFC
0006
0007
FFF6
0003
0002
0000
FFFF
FFFD
FFFF
FFFD
0000
FFFE
FFFF
0002
0009
0004
FFFA
FFF9
0006
0007
FFFE
0001
FFFB
FFFC
FFFD
FFFA
0002
0000
FFF6
FFF8
0000
0001
FFF6
0002
0000
FFFD
0003
FFF9
0003
0008
0006
FFFD
000B
0003
000D
FFF9
0007
FFFC
0006
FFF7
0007
0004
FFFB
FFF4
FFFA
0004
FFF7
FFFD
FFFB
FFF6
FFFA
0001
FFF4
FFFE
FFFC
FFF8
0009
FFF8
0001
0003
FFF7
FFFB
FFF8
0003
FFF7
FFF6
FFF6
0009
0001
0006
FFF5
0003
FFF8
FFF5
0009
000A
FFFF
0008
000A
0003
FFF8
000A
000C
FFF9
0001
000C
0007
0008
FFFA
000E
000E
000A
0001
0003
FFFA
0009
FFF7
FFF9
FFF9
0003
FFFE
0004
FFF9
FFFF
FFF0
0000
0002
0008
000C
0007
0007
FFFF
0001
0004
000A
FFF7
0004
0005
0002
0004
FFF8
0007
0005
0007
FFF3
0001
FFF1
000E
FFF8
FFF3
FFF9
0009
FFFD
000B
FFF4
FFFF
FFF9
FFF9
0009
0009
0003
0009
000C
0008
FFFF
000F
000A
FFFB
0002
0006
0002
0004
FFF3
0005
0002
0002
FFF9
0003
0000
FFF8
FFFF
0001
FFFD
FFFE
FFFE
0003
FFFD
0002
0004
FFFA
0001
0003
0004
FFFD
0002
FFFE
0001
FFFF
0005
0002
FFFC
0002
0001
0007
FFFC
0004
0001
FFFD
FFFD
FFFC
FFFA
FFFE
0002
0003
FFFB
FFFE
FFF8
0004
FFFF
FFFD
0000
0001
0002
FFFE
FFFE
0003
FFFB
0005
0004
0005
0004
0002
0003
0003
FFFE
FFFB
FFFB
0001
0004
0002
FFFE
0001
0000
0004
FFFB
0000
FFF9
0006
0003
0007
0000
FFFB
0003
FFFF
0000
0003
0004
000A
FFFF
0006
0002
0004
0006
FFF9
0003
0002
0006
FFFE
FFFC
FFFC
0005
FFF7
0002
0000
0004
0003
0005
FFFD
FFFF
0005
000A
FFFD
0004
FFFE
0001
FFFD
0000
FFFD
FFF3
FFFE
FFFC
FFFF
0006
FFFA
0002
FFFB
FFF8
0000
0002
FFFC
0007
FFFD
0003
0007
FFFF
FFFF
0000
FFFE
0000
0003
0006
FFFF
FFFC
0005
0000
0003
0000
0002
0003
FFFC
FFFF
0001
FFFB
FFFB
FFF8
FFFC
FFFA
0009
FFFD
0004
FFFE
0005
FFFF
FFFF
0001
0001
FFFD
FFFB
FFF9
FFFE
FFF9
0001
FFFD
0008
FFFD
0008
FFFE
FFFC
FFFB
0001
0005
0009
FFFE
FFFF
0005
0005
FFF9
000C
0009
FFFE
0007
0007
0000
0007
FFF4
0008
000A
FFF9
FFFD
FFFE
FFFF
0005
FFF6
FFFF
0005
0002
0004
0006
FFF7
0005
0001
FFFC
0004
0008
0002
0007
0000
0003
FFFA
0000
0007
FFF9
0003
0003
0002
0003
FFF2
0001
0005
FFFE
0006
FFFD
FFFE
FFFB
FFF7
0002
FFFB
0002
0005
FFFC
FFFF
FFFF
FFF9
0005
0003
0000
0000
0003
FFFF
0004
FFFC
FFFD
0004
FFF7
0001
FFFB
FFFE
FFFF
FFFD
FFFD
FFFC
FFFB
FFFF
0006
FFFD
0007
0002
0000
FFF9
0001
FFFD
FFFF
0005
0007
FFFB
0004
FFFC
FFFF
FFFD
FFFA
0004
FFF7
0005
0001
FFFC
0002
0005
FFFD
FFFF
FFFC
0000
FFFC
FFFA
0004
0002
0009
FFFE
FFFB
FFF5
0002
0002
0000
0002
0002
0004
0002
FFFD
0007
0003
FFFC
000B
FFFC
FFF8
000A
FFFC
0006
0000
0002
FFFC
FFFD
0005
0007
0001
FFFC
FFFC
FFFF
0000
0004
FFFE
0001
FFFD
FFFB
FFFE
0001
0003
0005
0002
FFFF
0009
FFFF
FFFD
0001
0004
0000
FFFA
000C
0002
0000
FFFA
FFFD
0006
FFFF
FFFF
0005
0000
FFFC
0003
FFFF
0002
FFFF
FFFD
0000
0003
FFFC
FFFE
FFFF
0008
0001
FFFB
0000
0001
0000
0002
0004
0005
FFFB
0007
0007
0003
0003
FFFE
0001
0000
0002
FFFE
FFF9
0001
0006
FFFA
FFFF
FFF9
0005
0003
FFFF
0004
FFF7
0004
FFFF
FFFA
0002
FFFA
FFFF
0000
0003
FFFB
FFFE
FFF9
0006
0000
0007
0003
FFFB
FFFE
0009
0004
0001
000A
FFF9
FFFD
FFFD
FFFB
FFFD
0000
0006
FFFF
FFF9
FFFF
0002
0003
0007
0005
FFFE
0002
FFFE
FFFC
0005
FFFE
FFFA
FFFC
0007
FFFD
0004
FFFE
0009
FFFB
FFFF
FFFD
0004
0000
0006
FFFF
0000
0001
0001
FFFA
0001
0006
0003
FFF7
0001
0002
FFFA
FFFD
FFFE
FFFB
FFFC
FFFE
0001
0000
0006
FFFA
FFF9
0003
FFFA
FFFF
0005
FFFF
0008
0003
FFFE
0000
0004
0004
0001
FFFB
0005
FFF5
0000
FFFF
0007
0004
FFF9
FFFE
0001
0001
0000
FFFD
0003
FFFC
FFF7
0002
0002
FFFD
0004
0004
000A
0003
0002
FFFC
0003
0003
FFFF
0000
FFF9
0002
FFFE
FFFF
FFFE
0006
FFFA
0005
FFFA
FFFF
0002
FFFB
0000
000A
FFFD
FFFB
FFFD
0001
FFFA
FFFD
FFF9
FFF7
0004
0000
FFFA
0001
FFFD
FFF9
FFFE
FFF6
FFFB
FFFC
FFF5
0004
FFF4
0004
0002
FFF8
0000
0002
FFFF
0000
FFFE
FFFB
FFFD
0001
FFFC
0001
0002
0002
0005
0004
FFFF
0000
FFFE
0003
0000
0001
FFF9
0004
0006
FFFB
0001
0001
0007
FFFE
0000
0001
FFFA
0002
0001
0002
FFF7
FFFE
0003
FFFE
FFFA
0008
0004
FFFB
0001
FFFE
0004
FFFF
FFFC
FFF9
FFFB
FFFD
0002
FFFA
FFFD
FFFD
0001
FFFC
FFF9
0000
FFF7
0004
FFFD
FFFA
0009
0006
0000
FFF2
FFFE
0001
FFF9
0008
0006
FFFB
0007
FFFE
FFFF
FFF8
FFFE
0000
0001
0009
0004
FFFE
FFFD
0001
0001
0001
0008
000D
0005
0004
0006
FFF8
0002
0003
0000
0001
FFFD
FFF8
FFFA
FFFA
FFFD
FFFF
0002
FFFB
0007
FFF9
0007
FFFA
FFFC
0001
0002
FFFE
0004
0005
FFFE
FFFE
0006
0003
0001
0003
0001
0001
0005
FFFA
0002
FFFD
FFFF
0003
0002
0000
0003
FFFC
0003
FFFD
0004
FFF6
0009
FFFA
FFFC
0002
FFFD
0001
0000
0005
0004
0001
FFFE
0000
FFFF
0004
0001
0009
FFFB
0003
0003
FFFA
0004
0004
0007
0001
FFF8
FFFD
FFFC
0003
0004
FFFA
FFFD
0009
000A
0001
0005
0001
0000
0003
0002
FFFE
FFF9
0006
FFFE
FFF9
000C
0005
0009
FFF9
0003
FFFD
0007
FFFE
0004
0002
FFFB
FFFF
0007
0001
0000
FFF8
0004
FFFB
0001
FFF8
0009
0001
FFFB
FFFF
0001
0004
0003
0007
0008
0006
0003
FFFC
0002
0006
FFFE
000D
0002
0008
000E
FFFD
0003
0007
000A
0009
FFFB
FFFC
0004
FFFA
0003
FFF8
0002
0006
0003
0001
0004
FFFA
FFFB
0000
FFFF
FFEE
FFFE
FFFF
0006
0000
FFFB
0001
FFF2
FFF8
0002
FFFA
FFFC
FFFC
FFFC
0000
0010
0001
0001
FFF8
0007
FFEF
0008
FFF6
000F
0003
0010
FFFB
FFFE
FFFC
0001
0006
FFFF
FFF6
FFFD
FFFF
0005
FFFD
FFFF
0007
FFFA
0002
0000
FFF9
0004
FFFC
0000
0008
0008
0002
FFFF
FFFF
0004
FFF4
0002
FFFD
0009
0004
0018
FFF4
FFFA
FFFD
FFFA
0006
0003
FFF2
FFFA
0006
0005
FFFD
0000
0002
0003
0005
0000
FFFD
0003
0000
0006
0009
000D
0005
FFF6
FFFC
000A
FFF6
0007
0001
0006
0004
000C
0000
0000
FFF5
FFFB
0002
0000
FFFA
FFFB
0001
0007
0000
FFF7
0000
FFFF
FFEF
FFFF
FFFB
0003
0000
0005
0005
FFFE
0003
FFFD
0001
FFFB
0001
0001
0004
FFFD
0005
0003
FFFB
0004
0006
0006
0003
FFFC
0002
0000
FFFC
FFFA
0004
FFFF
FFF4
FFFD
0003
0001
0001
FFFB
0007
0001
FFFE
FFFC
FFFE
0007
FFFC
0000
FFFE
0006
0005
FFFB
FFFC
0001
FFFB
FFFC
FFFE
0006
0003
0004
000D
FFFC
FFFF
FFF9
0001
0007
0000
0001
000F
0002
0000
FFFB
FFFF
0001
FFF7
0001
FFFE
0005
FFFF
0003
FFFE
0002
0004
FFFE
0009
0001
0002
FFFA
FFFC
FFFE
0002
FFFF
FFFF
FFFF
FFFB
FFFC
0003
0006
FFFE
FFFF
0000
0004
0000
0002
FFFF
FFFF
0003
0000
0000
0005
FFFD
0005
FFFF
0004
0001
0007
0002
0003
0000
FFFD
FFFE
0001
FFFD
0002
FFFD
FFFE
0002
0005
0002
0003
FFFC
FFF8
FFFA
FFFF
FFFD
FFFD
0001
0000
FFFF
0008
FFFC
FFF8
FFF9
0005
FFFE
FFFC
FFFD
0002
FFFE
0012
FFFD
0001
FFFF
FFFF
0006
0009
FFFE
0001
0002
0007
0001
0001
0007
FFF9
000D
0007
0002
0008
FFFD
0006
0005
FFFC
0001
0004
0001
FFFB
0001
0006
0002
FFFF
0007
0003
0003
0000
0000
0004
FFFB
FFFC
FFF4
0006
FFFE
FFFB
FFFD
FFFF
FFFB
0001
FFFA
0002
FFFD
FFF5
0001
FFFE
0000
0007
FFF8
FFF9
FFEA
0004
FFF5
FFFD
FFF1
0009
0001
FFFF
FFFB
FFFE
FFF5
FFF8
0007
000B
FFF7
0002
000D
000A
0003
0002
0009
FFFB
FFF7
000A
0005
0006
FFF6
000B
000F
FFFF
0002
FFFC
0006
0005
0004
0000
0000
0004
0002
0000
FFFE
FFFF
FFFF
0009
0000
FFFF
FFFF
FFFE
FFFB
FFFB
0000
0003
0004
0004
FFFE
FFFE
0002
FFFE
0000
0003
FFFF
0000
0007
FFFB
0006
FFF8
FFFF
0002
FFFD
FFF9
FFFE
FFF6
FFF9
0000
0004
0001
FFF9
FFFE
FFF5
FFF8
FFF6
FFFB
0008
FFFE
0000
FFFD
FFF5
FFFF
FFFB
FFFA
0000
FFFD
FFFB
0007
FFFE
0006
FFF9
0002
FFFE
0003
0003
0005
FFF9
FFFA
FFF8
0002
0001
0004
0000
0000
FFFE
0001
0001
0004
0005
FFFB
000B
0006
FFFC
FFFC
0000
FFFE
0005
0005
FFFC
FFFC
0000
FFFC
0001
0002
FFFE
FFFB
FFFE
FFFA
FFFD
FFFD
FFF6
FFF9
000A
000B
FFFE
FFFF
0007
0004
0001
0003
FFFF
FFFD
0001
0006
FFFF
FFFD
0002
FFFC
0004
FFFC
FFFA
000B
FFF9
0000
FFF7
0007
FFFD
FFFB
0000
000E
FFFC
000A
0002
0001
FFFC
FFFD
0004
0003
0004
0002
0007
000A
FFF6
0007
000C
0008
0009
0002
0005
000B
FFFD
0006
0004
0001
FFFC
0006
FFFC
FFFD
FFFD
0005
0000
0006
0004
0007
0000
0002
0001
0004
FFFF
0002
0003
0007
FFFD
FFFF
0004
0009
0002
0000
0000
0001
0003
0004
FFFE
0004
0000
FFFD
000A
FFFA
0005
FFFC
0001
0002
0005
FFF9
0005
FFFF
FFFE
0001
0002
FFFA
0004
0002
FFF0
FFFE
FFFE
FFFB
0003
0004
FFFA
FFFA
FFF7
0002
FFFD
FFF8
FFFB
FFFE
FFFF
0002
0000
FFFA
0004
FFFF
FFFF
0001
0003
0000
FFFE
FFFE
0002
FFFB
0000
0005
0004
0008
0004
FFFE
0001
FFFF
FFFA
0006
0003
0004
FFFE
0000
0000
0002
FFFB
FFFD
FFFF
FFFC
0001
FFFE
0000
FFFE
FFFE
0000
FFFA
FFFE
0000
FFFE
0001
FFFD
FFFF
FFFF
0001
FFFE
FFFB
FFFF
0000
FFFB
FFFD
FFFD
0001
FFFD
0006
0004
FFFF
FFF9
0003
0002
0001
0004
0002
0000
FFFB
FFF8
FFFD
FFFC
FFFE
0006
FFF9
FFFF
0000
FFF7
FFFC
0007
0001
0005
0004
0002
0005
FFFE
0006
FFFB
0001
FFFE
0002
0004
FFFE
FFFF
0004
FFFF
0002
FFFC
0005
0001
0003
FFFB
FFFA
0000
0002
0004
FFFB
FFFA
FFFD
0000
0002
000C
FFFE
FFFC
FFFD
FFFD
0001
FFFE
0005
0004
0000
0004
0002
0003
FFFD
FFFA
FFFC
FFFD
FFFD
FFFE
0000
0002
FFFD
0005
FFFF
FFFD
FFFA
FFFD
0002
FFFF
FFFB
FFFC
0000
FFF8
FFFF
FFFF
FFF8
0001
FFFE
FFF9
FFFA
0000
0002
FFFA
FFFC
FFFF
FFFF
0002
FFFA
FFFA
FFF6
0000
0000
0004
FFFB
FFFF
0005
FFFF
FFFF
0004
0004
FFFE
FFFE
0001
0009
0008
FFFF
0003
0006
FFFF
0002
0002
FFFF
FFF9
FFFE
FFFC
FFF5
0002
FFFC
FFFF
0003
FFFE
FFF9
0000
0008
FFF8
0006
FFFF
0003
0001
FFF4
FFFF
0009
0005
0009
0003
FFFE
0005
FFFF
FFFB
FFF1
FFF5
FFF3
FFF9
0006
FFFF
FFEC
FFFA
FFF4
FFFA
FFF7
FFFE
0007
FFF5
0000
FFFA
0003
FFFE
FFFE
0001
0007
0000
0000
FFFE
0005
0000
000E
0011
FFFA
FFFF
FFFE
FFF6
FFF4
FFFB
FFF9
FFF8
000F
0001
FFF0
FFFD
FFF5
FFF8
FFFF
0001
0001
FFF4
0004
FFFC
0000
0002
0007
0000
0006
FFFE
0000
FFFD
FFFC
FFFB
0001
FFFC
0008
FFFC
0001
0004
000D
000E
0003
0001
0014
000A
0006
0002
FFFA
FFFB
0004
FFFF
0002
0001
0002
FFFE
000B
FFFF
0001
0005
0006
0003
FFF7
0000
000C
0002
0006
0011
0003
0008
FFFA
FFF5
FFF1
FFF6
FFF7
FFF6
0002
0007
FFEE
FFF6
FFF2
FFF6
FFFC
FFFD
0009
FFF2
0004
0006
0002
FFFE
FFFE
0004
0004
0002
FFFF
0000
0003
FFF8
0005
0001
0004
FFFF
FFFE
0003
0009
FFFE
FFFF
0003
0000
0009
FFFF
FFFA
0000
FFFD
0003
0000
0003
FFFB
000A
0000
0004
FFFC
FFFF
FFF5
FFFD
FFFD
FFF7
0007
0003
FFF9
0000
FFFF
0006
FFFF
FFFC
0000
FFFE
0004
0004
0006
000C
0006
0000
0000
FFF8
FFFC
0003
0000
FFFE
FFFC
FFFF
0003
FFFF
FFF7
0005
0002
0004
FFFF
0002
FFFC
0003
FFFA
0002
0005
FFFD
FFFE
0000
0000
FFF8
0006
FFFC
FFFB
0001
FFFE
0001
0001
FFF9
FFF9
FFFE
FFFC
0001
FFFA
0003
FFFC
FFFE
FFFE
FFFA
0003
0003
FFFD
FFF8
FFFE
FFFF
FFF8
0004
FFFE
0002
0001
0001
0000
000A
0005
0000
000A
0006
0002
0004
FFFC
0005
FFF9
0003
0000
0001
0003
FFFA
0001
FFFE
0003
0002
FFFB
FFFE
0000
0002
0003
0003
FFFC
0001
FFFF
FFFE
FFFB
0000
FFFD
FFFA
FFFC
0001
0006
0003
0003
FFFE
FFF6
FFFB
0001
FFFB
FFF9
0004
FFFF
FFF8
FFFF
0000
FFFF
0002
FFFE
FFFB
0004
0006
FFFE
0002
0007
FFF8
FFFD
0004
0004
FFFC
0000
0003
FFFE
0001
0002
FFFD
0006
FFF9
0004
0003
FFFA
FFFF
FFFA
0003
FFF9
FFFC
FFFE
0001
0006
FFFB
FFFF
0001
0000
0001
0000
0008
0000
FFFE
0008
0005
FFFF
FFFD
FFFE
FFFA
0002
FFFE
000A
FFFF
0002
FFFF
0003
0000
FFFB
FFFE
0003
FFFD
FFFB
FFFE
FFFC
0003
FFFC
0006
0000
0003
0002
0007
FFFD
0004
0002
0004
FFFE
0009
0007
0002
FFFE
0007
FFFF
0001
0000
FFFA
FFF7
FFF7
FFFB
FFFA
FFFC
FFF7
FFFD
0007
FFF7
FFFD
0005
0001
0001
FFF6
000A
FFFD
FFFE
0000
0001
0001
0008
0002
0003
FFF2
FFFA
0000
0004
FFFE
0009
0007
0003
FFF8
000B
0002
FFF9
FFFD
0001
0007
FFFA
FFF6
0006
0003
FFF6
FFFE
FFFD
0007
FFFC
0002
FFFD
0000
FFFE
0002
FFFD
FFFE
FFFD
0006
0002
FFFA
FFFD
0005
0003
FFFB
0001
0001
FFFF
FFF1
FFFC
FFF7
FFFB
FFFF
FFFF
0004
FFFA
FFFA
FFFE
0002
0009
0006
FFF9
FFFB
FFFD
0001
FFFA
000A
0001
FFF9
0000
0006
000B
FFFE
FFF8
000D
FFFE
FFFD
0000
0009
FFF8
FFFC
FFF6
FFFD
FFFE
0002
0003
0002
FFF8
FFF9
FFFC
0001
0006
0001
0004
0000
FFFB
0005
0000
0003
FFFC
FFFB
0001
0004
FFFC
FFF9
FFFC
000B
0008
FFFE
FFFA
0004
FFFB
FFF6
FFFC
FFF9
FFFC
FFFD
FFFE
0003
FFF9
FFF9
FFFE
FFFF
0006
0001
FFF7
0001
FFFE
FFFB
FFFE
0000
FFFF
FFFD
FFFE
0001
FFF8
0004
0002
FFFB
FFFB
0000
FFFB
0005
0001
0004
FFFB
FFFE
0004
FFFF
0000
FFFA
0003
0002
FFFC
0002
FFFF
FFF9
FFF6
FFFE
0001
FFFB
0003
FFFC
0000
FFFD
0003
FFFE
FFFF
0002
0003
0008
0004
FFFF
0002
FFFF
0009
0007
0003
FFFF
0004
FFFE
FFFF
FFF9
0004
0001
0004
0001
0002
FFFE
FFFE
0002
FFFE
FFF8
0006
0007
0004
FFFC
0001
0001
0000
0001
FFFF
0001
FFFE
FFFA
0009
0003
0001
0001
FFFC
FFF5
FFFF
FFFA
0002
0000
FFFB
0003
FFFF
FFFD
0005
FFFD
0002
0000
FFFE
FFFA
0001
FFFF
0006
FFFB
FFFA
0003
FFF9
0003
0000
FFF8
FFFD
0001
0005
0006
0008
000A
FFFC
0002
0004
0001
0002
FFFE
0005
0004
0006
FFFB
FFF2
0001
0002
FFFB
0002
FFFB
FFFB
FFFB
FFFF
FFFF
0001
FFFA
FFFF
0004
0004
0003
FFFB
0004
0005
FFFF
0001
0006
0006
0000
FFFF
FFFD
0000
0000
0004
0000
FFFB
FFFF
FFFF
FFF8
FFF8
FFFE
0002
0005
0006
0003
FFFD
FFFA
FFFC
FFFF
000B
0000
FFFD
FFFD
FFFD
FFFD
FFFC
0001
0001
0004
0001
0006
0002
0000
0003
0000
0001
FFFD
FFFA
0008
0009
0000
FFFB
0000
0003
000A
FFFF
0002
0000
FFFB
FFFC
0009
0005
0000
0004
0005
0003
FFF8
FFF6
FFF6
FFF9
0003
0004
FFFE
0000
FFFF
0002
FFFE
FFFE
0000
FFFA
0007
0002
0001
FFFC
0005
0003
0009
0008
0000
FFFE
0000
0001
FFFF
0001
0000
0001
0000
0002
FFFF
FFFB
FFFF
FFFC
0001
0003
0006
FFFF
0003
0000
FFFF
0000
FFFA
0005
0005
FFFE
0006
0004
0006
0007
0003
0003
0006
FFFF
FFFD
FFFE
FFFD
0005
FFFF
0004
FFFC
0000
FFFE
FFF6
FFF8
FFFA
FFFE
0005
0004
FFFE
FFFF
FFFF
0009
FFFF
FFFD
0001
FFFE
FFFB
FFFD
FFFA
0003
000B
0005
FFFC
0003
0002
0004
0002
FFF9
0007
FFFB
FFFE
000B
FFFE
FFFB
FFFE
0007
0005
FFFA
000B
0001
FFFE
0001
FFFB
FFFF
FFFD
FFFD
FFFC
FFFE
FFFE
0001
FFFC
0000
0003
0000
FFFA
0006
0004
0006
0004
FFFF
0004
FFFE
0000
0001
FFFE
FFF7
0000
0007
FFFE
FFFA
0000
FFFF
FFFC
0003
FFFE
0001
FFFC
FFFF
FFFF
0002
0007
FFFE
FFFF
FFFB
FFFE
FFFD
FFFC
0006
FFF9
FFF9
FFFD
0002
FFFE
FFFF
0001
0002
FFFF
0004
FFFF
FFFF
0008
0000
0000
FFFD
FFFF
0003
0000
0004
FFFF
0001
FFFE
0009
0001
0003
0004
0003
FFF3
FFFF
FFFD
FFFC
FFF4
0001
0000
0002
0001
FFF8
FFFD
FFFE
FFFE
FFFE
0000
0009
0003
FFFF
0002
0004
FFFA
0004
FFF9
0008
FFF6
FFF5
FFFB
FFFD
0000
FFFE
FFFD
FFF8
0003
0004
FFFF
0001
FFFB
0004
FFFF
0003
0009
0000
FFFF
FFFD
0005
0001
0002
0008
0002
FFFA
0006
0005
0001
0001
0003
FFFB
FFFF
0004
FFFF
0003
0005
0009
0003
FFFD
FFFB
0000
FFF5
0006
0005
FFF6
FFFE
0002
0000
FFFF
0004
FFFD
FFFF
0002
0001
FFFF
0003
FFFD
FFFB
FFFB
FFF9
0005
0000
0008
FFFE
0000
FFFE
FFFC
FFFC
0001
0002
000B
FFFC
FFFA
FFFF
0007
0002
FFF8
0006
FFFF
FFFA
0000
FFFE
FFF4
000A
0003
0007
0005
0004
FFFB
FFF3
FFFA
FFFD
0002
FFF8
0005
FFFF
0003
0003
FFFD
FFF4
0003
FFFE
FFF9
0004
FFFC
0007
0004
FFFA
FFFF
0005
0000
0006
0001
FFFF
0004
0005
0001
FFF8
0004
0004
0008
0003
FFFA
0005
0000
FFFE
0004
0005
0007
FFFD
FFF9
0005
FFFF
FFFF
FFFF
0001
FFFD
FFFE
FFFA
0002
FFF9
0007
0007
0007
0000
0002
0008
FFFA
FFFF
FFFB
0007
FFF7
0006
FFFE
FFFC
0003
0002
0000
0005
FFFF
FFFE
0006
0003
FFFC
FFFE
FFFF
FFF8
0007
FFFD
FFFD
FFF9
FFFC
0002
FFFE
FFFE
0007
0001
0002
0004
FFFB
0001
0005
FFFE
0004
FFFF
0004
000A
0002
0003
0006
FFFC
0004
0001
FFFA
0000
FFFC
FFFC
FFFE
FFFC
FFFE
0000
FFFD
FFFD
FFFD
FFFB
0001
FFFD
0003
FFFE
0005
0002
0005
0004
FFFC
FFFE
FFFC
FFFD
FFFF
FFFB
0001
FFFF
FFFE
FFFF
0002
0001
0001
FFFF
0006
0003
0002
0008
FFFC
0007
0005
FFFD
FFFE
FFFD
FFFD
FFFE
0008
0000
0003
FFFF
0001
0000
FFFA
0003
0007
0004
0009
FFFE
FFFE
FFFF
0001
0003
0000
0000
FFFE
0005
0001
FFFC
0000
FFFC
FFFF
0003
FFFE
FFFB
0000
FFFD
0003
0000
0000
FFFF
FFF6
0005
FFF5
FFFB
FFFF
0001
0002
FFFD
FFFF
0003
FFFC
0000
0004
0003
0000
0000
0006
FFFA
FFFD
0003
FFF6
FFFD
0001
FFFF
FFFE
0006
0006
0003
FFFF
0003
0004
FFFF
0005
FFFC
0002
0000
0005
FFFB
0000
FFFF
0005
0002
0003
FFFC
FFFF
FFFF
0000
FFFF
FFF9
0000
0003
0001
0002
FFFF
FFFE
0003
FFFE
FFFC
0000
0002
FFFC
FFFD
0001
FFFE
FFFF
0004
FFFE
FFFE
0008
0008
0000
FFF9
FFFE
000A
FFFE
FFFF
0008
0002
0002
0001
0008
0002
0002
0003
0006
FFFA
0006
FFF9
0002
FFFE
FFFD
FFFD
FFFC
0003
FFF7
0002
0002
FFED
FFFF
0000
0009
FFFF
FFFC
0007
FFF9
FFFA
0003
0002
FFFD
0006
0003
FFF9
0009
0000
FFFF
FFFC
FFFD
FFF9
000C
FFFD
0008
0008
000D
0001
0005
FFF7
FFFB
0002
0000
FFF6
FFF7
FFFE
0007
FFFE
0004
FFFE
FFFD
FFFD
FFFD
FFF6
FFFA
FFFD
FFFA
000D
0008
0002
FFF8
FFFA
0005
FFF6
0005
FFFC
0006
000A
0012
FFFB
FFFE
FFF5
0003
0004
0000
FFF8
FFF3
0000
0009
FFFE
0002
FFF9
FFFF
0001
0000
FFFE
0001
FFFA
FFFF
000C
0009
0006
0007
FFFE
0001
FFFA
0006
0002
0004
000A
000D
FFF8
FFFC
0006
FFFC
0005
FFFF
FFF0
FFFC
0003
000B
FFFD
FFFD
0001
FFF7
FFFC
0001
0001
0000
0006
0001
0001
FFFF
FFFD
FFFB
FFFD
0002
0000
0003
0005
FFFE
FFFC
0000
0003
FFFC
0000
0004
0003
FFFF
000A
0000
FFFF
FFFB
FFFB
0002
FFFB
0006
0001
0000
FFFE
FFFA
0003
0002
FFFD
