FFEA
FFA3
0160
FEAE
017B
0186
003E
0052
FF18
01F3
FFE3
FDF2
FECB
FE94
FFE2
FF66
FE6B
FE6D
FF46
FF56
017C
FFB5
FE84
0029
005B
00B9
FF76
FE22
FEFF
FF3D
009B
0095
0056
0062
0073
FFDB
FF32
FFB6
001B
0034
00BA
FF81
FF6D
0015
FF25
FF4A
000C
0006
FFD1
0059
0117
0032
FF50
0092
FF8E
00FB
00E7
00B7
006C
FFF7
FF7C
0130
FF1C
00DA
0198
FEAE
FF77
0089
006B
00F6
006B
FDFB
FEFD
FFB7
FE8C
00B8
0097
FFE1
FEFF
0112
0094
FFA4
001A
0167
0089
012D
FFB7
FFC8
0016
FEC7
00FE
FFBA
00E2
00B5
FEB4
FE92
009D
0046
0028
FFF8
FF54
FFDB
002A
FF9C
00C3
FFAC
FF4F
002D
FF4E
FFF9
FED3
00FC
FFD9
008C
00DC
006A
FFDF
00EB
FFBA
00D0
009C
FFA1
00CB
FFC7
FEED
FF9C
FF6F
FFA2
FFD3
0143
009E
FF20
FF67
002E
01BB
00A5
0076
FFED
FFC9
0016
FF80
FF47
FF57
FFB4
FF55
00D8
004A
FF9E
FF1A
0038
FF16
008A
00BF
00A5
0075
FFE1
FFC0
FF23
FFB3
00E8
